{
  "version": "1.0",
  "truncation": null,
  "padding": null,
  "added_tokens": [
    {
      "id": 0,
      "content": "[UNK]",
      "single_word": false,
      "lstrip": false,
      "rstrip": false,
      "normalized": false,
      "special": true
    },
    {
      "id": 1,
      "content": "<PAD>",
      "single_word": false,
      "lstrip": false,
      "rstrip": false,
      "normalized": false,
      "special": true
    },
    {
      "id": 2,
      "content": "<BOS>",
      "single_word": false,
      "lstrip": false,
      "rstrip": false,
      "normalized": false,
      "special": true
    },
    {
      "id": 3,
      "content": "<EOS>",
      "single_word": false,
      "lstrip": false,
      "rstrip": false,
      "normalized": false,
      "special": true
    }
  ],
  "normalizer": {
    "type": "Sequence",
    "normalizers": []
  },
  "pre_tokenizer": {
    "type": "Whitespace"
  },
  "post_processor": null,
  "decoder": null,
  "model": {
    "type": "BPE",
    "dropout": null,
    "unk_token": "[UNK]",
    "continuing_subword_prefix": null,
    "end_of_word_suffix": null,
    "fuse_unk": false,
    "byte_fallback": false,
    "ignore_merges": false,
    "vocab": {
      "[UNK]": 0,
      "<PAD>": 1,
      "<BOS>": 2,
      "<EOS>": 3,
      "!": 4,
      "\"": 5,
      "#": 6,
      "$": 7,
      "%": 8,
      "&": 9,
      "'": 10,
      "(": 11,
      ")": 12,
      "*": 13,
      "+": 14,
      ",": 15,
      "-": 16,
      ".": 17,
      "/": 18,
      "0": 19,
      "1": 20,
      "2": 21,
      "3": 22,
      "4": 23,
      "5": 24,
      "6": 25,
      "7": 26,
      "8": 27,
      "9": 28,
      ":": 29,
      ";": 30,
      "<": 31,
      "=": 32,
      ">": 33,
      "?": 34,
      "@": 35,
      "A": 36,
      "B": 37,
      "C": 38,
      "D": 39,
      "E": 40,
      "F": 41,
      "G": 42,
      "H": 43,
      "I": 44,
      "J": 45,
      "K": 46,
      "L": 47,
      "M": 48,
      "N": 49,
      "O": 50,
      "P": 51,
      "Q": 52,
      "R": 53,
      "S": 54,
      "T": 55,
      "U": 56,
      "V": 57,
      "W": 58,
      "X": 59,
      "Y": 60,
      "Z": 61,
      "[": 62,
      "\\": 63,
      "]": 64,
      "_": 65,
      "`": 66,
      "a": 67,
      "b": 68,
      "c": 69,
      "d": 70,
      "e": 71,
      "f": 72,
      "g": 73,
      "h": 74,
      "i": 75,
      "j": 76,
      "k": 77,
      "l": 78,
      "m": 79,
      "n": 80,
      "o": 81,
      "p": 82,
      "q": 83,
      "r": 84,
      "s": 85,
      "t": 86,
      "u": 87,
      "v": 88,
      "w": 89,
      "x": 90,
      "y": 91,
      "z": 92,
      "{": 93,
      "|": 94,
      "}": 95,
      "~": 96,
      "¡": 97,
      "¢": 98,
      "£": 99,
      "¤": 100,
      "¥": 101,
      "¦": 102,
      "§": 103,
      "¨": 104,
      "©": 105,
      "ª": 106,
      "«": 107,
      "¬": 108,
      "­": 109,
      "®": 110,
      "¯": 111,
      "°": 112,
      "±": 113,
      "²": 114,
      "³": 115,
      "´": 116,
      "µ": 117,
      "¶": 118,
      "·": 119,
      "¸": 120,
      "¹": 121,
      "º": 122,
      "»": 123,
      "¼": 124,
      "½": 125,
      "¾": 126,
      "¿": 127,
      "Â": 128,
      "Ã": 129,
      "Ä": 130,
      "Å": 131,
      "É": 132,
      "Ê": 133,
      "Ñ": 134,
      "Ò": 135,
      "á": 136,
      "â": 137,
      "ã": 138,
      "ä": 139,
      "å": 140,
      "æ": 141,
      "ç": 142,
      "è": 143,
      "é": 144,
      "î": 145,
      "ï": 146,
      "ð": 147,
      "Œ": 148,
      "œ": 149,
      "Š": 150,
      "š": 151,
      "Ÿ": 152,
      "Ž": 153,
      "ž": 154,
      "ƒ": 155,
      "ˆ": 156,
      "˜": 157,
      "–": 158,
      "‘": 159,
      "’": 160,
      "‚": 161,
      "“": 162,
      "”": 163,
      "„": 164,
      "†": 165,
      "‡": 166,
      "•": 167,
      "…": 168,
      "‰": 169,
      "‹": 170,
      "›": 171,
      "€": 172,
      "™": 173,
      "he": 174,
      "an": 175,
      "the": 176,
      "ed": 177,
      "and": 178,
      "to": 179,
      "in": 180,
      "re": 181,
      "ou": 182,
      "wa": 183,
      "it": 184,
      "ha": 185,
      "er": 186,
      "was": 187,
      "om": 188,
      "en": 189,
      "on": 190,
      "ar": 191,
      "The": 192,
      "is": 193,
      "ing": 194,
      "il": 195,
      "sa": 196,
      "id": 197,
      "le": 198,
      "ay": 199,
      "im": 200,
      "lo": 201,
      "al": 202,
      "st": 203,
      "or": 204,
      "her": 205,
      "He": 206,
      "She": 207,
      "ir": 208,
      "th": 209,
      "They": 210,
      "be": 211,
      "ne": 212,
      "hat": 213,
      "ver": 214,
      "ut": 215,
      "se": 216,
      "ke": 217,
      "at": 218,
      "no": 219,
      "ck": 220,
      "ld": 221,
      "ce": 222,
      "said": 223,
      "am": 224,
      "ve": 225,
      "ri": 226,
      "ily": 227,
      "she": 228,
      "pl": 229,
      "ith": 230,
      "pp": 231,
      "of": 232,
      "ad": 233,
      "with": 234,
      "ig": 235,
      "his": 236,
      "Lily": 237,
      "un": 238,
      "you": 239,
      "ked": 240,
      "so": 241,
      "ly": 242,
      "day": 243,
      "very": 244,
      "we": 245,
      "ome": 246,
      "li": 247,
      "my": 248,
      "that": 249,
      "go": 250,
      "up": 251,
      "ow": 252,
      "ant": 253,
      "ch": 254,
      "es": 255,
      "as": 256,
      "had": 257,
      "play": 258,
      "they": 259,
      "for": 260,
      "mom": 261,
      "fe": 262,
      "nd": 263,
      "ould": 264,
      "all": 265,
      "end": 266,
      "bo": 267,
      "happ": 268,
      "ent": 269,
      "want": 270,
      "itt": 271,
      "ge": 272,
      "ok": 273,
      "are": 274,
      "tim": 275,
      "It": 276,
      "out": 277,
      "do": 278,
      "not": 279,
      "ro": 280,
      "ound": 281,
      "ittle": 282,
      "ther": 283,
      "time": 284,
      "little": 285,
      "there": 286,
      "ry": 287,
      "ht": 288,
      "ra": 289,
      "sh": 290,
      "happy": 291,
      "sm": 292,
      "big": 293,
      "but": 294,
      "ys": 295,
      "fri": 296,
      "ake": 297,
      "saw": 298,
      "friend": 299,
      ".\"": 300,
      "ter": 301,
      "ack": 302,
      "thing": 303,
      "some": 304,
      "ul": 305,
      "One": 306,
      "ide": 307,
      "one": 308,
      "Tim": 309,
      "!\"": 310,
      "On": 311,
      "ug": 312,
      "ved": 313,
      "were": 314,
      "Once": 315,
      "ho": 316,
      "car": 317,
      "him": 318,
      "irl": 319,
      "el": 320,
      "wanted": 321,
      "pe": 322,
      "Tom": 323,
      "girl": 324,
      "upon": 325,
      "ful": 326,
      "them": 327,
      "ur": 328,
      "Ben": 329,
      "ind": 330,
      "their": 331,
      "ill": 332,
      "ag": 333,
      "smil": 334,
      "did": 335,
      "could": 336,
      "me": 337,
      "co": 338,
      "have": 339,
      "ex": 340,
      "mo": 341,
      "hen": 342,
      "But": 343,
      "hel": 344,
      "can": 345,
      "rom": 346,
      "went": 347,
      "ted": 348,
      "new": 349,
      "od": 350,
      "de": 351,
      "nam": 352,
      "?\"": 353,
      "help": 354,
      "friends": 355,
      "um": 356,
      "ab": 357,
      "hed": 358,
      "way": 359,
      "back": 360,
      "fel": 361,
      "ain": 362,
      "like": 363,
      "You": 364,
      "fun": 365,
      "fo": 366,
      "side": 367,
      "man": 368,
      "ark": 369,
      "ic": 370,
      "too": 371,
      "ran": 372,
      "ght": 373,
      "po": 374,
      "Timmy": 375,
      "star": 376,
      "smiled": 377,
      "named": 378,
      "loved": 379,
      "low": 380,
      "loo": 381,
      "asked": 382,
      "et": 383,
      "Mom": 384,
      "ard": 385,
      "la": 386,
      "felt": 387,
      "sto": 388,
      "see": 389,
      "looked": 390,
      "ick": 391,
      "own": 392,
      "around": 393,
      "ame": 394,
      "pr": 395,
      "make": 396,
      "ure": 397,
      "bir": 398,
      "would": 399,
      "wor": 400,
      "fa": 401,
      "boy": 402,
      "now": 403,
      "ong": 404,
      "other": 405,
      "bird": 406,
      "gr": 407,
      "park": 408,
      "ll": 409,
      "op": 410,
      "what": 411,
      "ice": 412,
      "mad": 413,
      "tre": 414,
      ",\"": 415,
      "away": 416,
      "gether": 417,
      "ca": 418,
      "ss": 419,
      "dd": 420,
      "says": 421,
      "started": 422,
      "oud": 423,
      "came": 424,
      "made": 425,
      "ight": 426,
      "something": 427,
      "together": 428,
      "na": 429,
      "get": 430,
      "ited": 431,
      "look": 432,
      "put": 433,
      "sad": 434,
      "exc": 435,
      "got": 436,
      "from": 437,
      "ts": 438,
      "scar": 439,
      "ach": 440,
      "if": 441,
      "home": 442,
      "mu": 443,
      "again": 444,
      "ue": 445,
      "ie": 446,
      "wal": 447,
      "good": 448,
      "who": 449,
      "found": 450,
      "ried": 451,
      "then": 452,
      "dec": 453,
      "pped": 454,
      "ci": 455,
      "more": 456,
      "when": 457,
      "hug": 458,
      "ep": 459,
      "playing": 460,
      "ought": 461,
      "king": 462,
      "ally": 463,
      "ave": 464,
      "by": 465,
      "things": 466,
      "excited": 467,
      "liked": 468,
      "ru": 469,
      "Sam": 470,
      "der": 471,
      "ous": 472,
      "ny": 473,
      "ara": 474,
      "ided": 475,
      "An": 476,
      "us": 477,
      "decided": 478,
      "ouse": 479,
      "every": 480,
      "your": 481,
      "care": 482,
      "scared": 483,
      "dog": 484,
      "down": 485,
      "use": 486,
      "ax": 487,
      "find": 488,
      "sha": 489,
      "pre": 490,
      "than": 491,
      "ac": 492,
      "take": 493,
      "spe": 494,
      "We": 495,
      "ate": 496,
      "Sara": 497,
      "feel": 498,
      "jo": 499,
      "udd": 500,
      "Anna": 501,
      "ways": 502,
      "dad": 503,
      "arn": 504,
      "wo": 505,
      "Max": 506,
      "our": 507,
      "will": 508,
      "ang": 509,
      "clo": 510,
      "here": 511,
      "didn": 512,
      "always": 513,
      "about": 514,
      "took": 515,
      "bb": 516,
      "ite": 517,
      "mommy": 518,
      "qu": 519,
      "toys": 520,
      "ise": 521,
      "old": 522,
      "te": 523,
      "ma": 524,
      "So": 525,
      "know": 526,
      "outside": 527,
      "tree": 528,
      "ers": 529,
      "thought": 530,
      "learn": 531,
      "ive": 532,
      "sor": 533,
      "ust": 534,
      "ened": 535,
      "wh": 536,
      "room": 537,
      "fore": 538,
      "cat": 539,
      "ty": 540,
      "Jo": 541,
      "laug": 542,
      "speci": 543,
      "special": 544,
      "When": 545,
      "udden": 546,
      "knew": 547,
      "ged": 548,
      "red": 549,
      "any": 550,
      "run": 551,
      "ball": 552,
      "come": 553,
      "Her": 554,
      "pa": 555,
      "bu": 556,
      "uddenly": 557,
      "br": 558,
      "ink": 559,
      "toy": 560,
      "house": 561,
      "ish": 562,
      "never": 563,
      "fter": 564,
      "how": 565,
      "ol": 566,
      "show": 567,
      "lf": 568,
      "rd": 569,
      "ist": 570,
      "Jack": 571,
      "sorry": 572,
      "cre": 573,
      "bl": 574,
      "sw": 575,
      "much": 576,
      "Every": 577,
      "hand": 578,
      "ia": 579,
      "dre": 580,
      "careful": 581,
      "ven": 582,
      "able": 583,
      "cle": 584,
      "sk": 585,
      "gave": 586,
      "sun": 587,
      "long": 588,
      "into": 589,
      "tried": 590,
      "inside": 591,
      "water": 592,
      "told": 593,
      "cl": 594,
      "this": 595,
      "over": 596,
      "box": 597,
      "ta": 598,
      "proud": 599,
      "couldn": 600,
      "heard": 601,
      "dy": 602,
      "ear": 603,
      "tter": 604,
      "each": 605,
      "sp": 606,
      "Let": 607,
      "love": 608,
      "eat": 609,
      "Suddenly": 610,
      "gre": 611,
      "ump": 612,
      "pick": 613,
      "led": 614,
      "played": 615,
      "pret": 616,
      "ion": 617,
      "Then": 618,
      "cause": 619,
      "Mia": 620,
      "just": 621,
      "uc": 622,
      "hugged": 623,
      "off": 624,
      "unt": 625,
      "right": 626,
      "wat": 627,
      "fly": 628,
      "com": 629,
      "nice": 630,
      "From": 631,
      "And": 632,
      "pot": 633,
      "ct": 634,
      "che": 635,
      "because": 636,
      "His": 637,
      "need": 638,
      "flow": 639,
      "ile": 640,
      "many": 641,
      "That": 642,
      "exp": 643,
      "try": 644,
      "bear": 645,
      "small": 646,
      "ving": 647,
      "lad": 648,
      "ine": 649,
      "iz": 650,
      "imal": 651,
      "oug": 652,
      "read": 653,
      "animal": 654,
      "uck": 655,
      "ough": 656,
      "rabb": 657,
      "ber": 658,
      "until": 659,
      "self": 660,
      "bed": 661,
      "its": 662,
      "kind": 663,
      "per": 664,
      "learned": 665,
      "fast": 666,
      "bea": 667,
      "ket": 668,
      "better": 669,
      "call": 670,
      "vent": 671,
      "don": 672,
      "What": 673,
      "best": 674,
      "ass": 675,
      "urn": 676,
      "bra": 677,
      "Yes": 678,
      "say": 679,
      "fi": 680,
      "urt": 681,
      "explo": 682,
      "where": 683,
      "Mommy": 684,
      "gard": 685,
      "garden": 686,
      "beaut": 687,
      "let": 688,
      "even": 689,
      "fle": 690,
      "pt": 691,
      "thanked": 692,
      "laughed": 693,
      "nt": 694,
      "sky": 695,
      "yes": 696,
      "safe": 697,
      "jump": 698,
      "under": 699,
      "ell": 700,
      "ace": 701,
      "sur": 702,
      "loud": 703,
      "iny": 704,
      "ank": 705,
      "Can": 706,
      "list": 707,
      "ched": 708,
      "iful": 709,
      "beautiful": 710,
      "give": 711,
      "joy": 712,
      "lots": 713,
      "rong": 714,
      "fam": 715,
      "still": 716,
      "ama": 717,
      "animals": 718,
      "Joh": 719,
      "John": 720,
      "ning": 721,
      "rain": 722,
      "won": 723,
      "book": 724,
      "stay": 725,
      "Th": 726,
      "ree": 727,
      "both": 728,
      "turn": 729,
      "No": 730,
      "fin": 731,
      "two": 732,
      "ble": 733,
      "hard": 734,
      "bad": 735,
      "has": 736,
      "pu": 737,
      "ople": 738,
      "As": 739,
      "lived": 740,
      "Bo": 741,
      "cks": 742,
      "Luc": 743,
      "Thank": 744,
      "lea": 745,
      "brave": 746,
      "app": 747,
      "Lucy": 748,
      "keep": 749,
      "walked": 750,
      "hurt": 751,
      "ground": 752,
      "should": 753,
      "tru": 754,
      "ort": 755,
      "igh": 756,
      "ished": 757,
      "surpr": 758,
      "angry": 759,
      "family": 760,
      "people": 761,
      "flew": 762,
      "called": 763,
      "After": 764,
      "rm": 765,
      "con": 766,
      "soon": 767,
      "door": 768,
      "Dad": 769,
      "kept": 770,
      "real": 771,
      "share": 772,
      "arm": 773,
      "ook": 774,
      "pic": 775,
      "ised": 776,
      "imp": 777,
      "going": 778,
      "ane": 779,
      "ting": 780,
      "clos": 781,
      "pretty": 782,
      "sl": 783,
      "clean": 784,
      "lot": 785,
      "advent": 786,
      "cu": 787,
      "ummy": 788,
      "noise": 789,
      "bro": 790,
      "opened": 791,
      "mor": 792,
      "shiny": 793,
      "ste": 794,
      "wind": 795,
      "explore": 796,
      "cry": 797,
      "doll": 798,
      "place": 799,
      "before": 800,
      "illy": 801,
      "feeling": 802,
      "dra": 803,
      "also": 804,
      "les": 805,
      "lie": 806,
      "ild": 807,
      "€™": 808,
      "ied": 809,
      "idea": 810,
      "nodd": 811,
      "Bob": 812,
      "nex": 813,
      "colo": 814,
      "nodded": 815,
      "art": 816,
      "tal": 817,
      "picked": 818,
      "color": 819,
      "while": 820,
      "set": 821,
      "walking": 822,
      "next": 823,
      "fish": 824,
      "head": 825,
      "ask": 826,
      "clim": 827,
      "face": 828,
      "work": 829,
      "thr": 830,
      "uch": 831,
      "ture": 832,
      "ies": 833,
      "adventure": 834,
      "ess": 835,
      "smile": 836,
      "less": 837,
      "aybe": 838,
      "iced": 839,
      "looking": 840,
      "ak": 841,
      "mber": 842,
      "being": 843,
      "hair": 844,
      "dif": 845,
      "ever": 846,
      "food": 847,
      "walk": 848,
      "picture": 849,
      "think": 850,
      "night": 851,
      "used": 852,
      "vo": 853,
      "Spot": 854,
      "eyes": 855,
      "ught": 856,
      "listen": 857,
      "stopped": 858,
      "after": 859,
      "member": 860,
      "Do": 861,
      "flowers": 862,
      "year": 863,
      "weet": 864,
      "wonder": 865,
      "repl": 866,
      "great": 867,
      "Sue": 868,
      "wait": 869,
      "ries": 870,
      "shout": 871,
      "import": 872,
      "enjoy": 873,
      "blo": 874,
      "blue": 875,
      "forest": 876,
      "noticed": 877,
      "hands": 878,
      "ring": 879,
      "ized": 880,
      "dis": 881,
      "mon": 882,
      "near": 883,
      "quick": 884,
      "irst": 885,
      "bye": 886,
      "important": 887,
      "remember": 888,
      "sound": 889,
      "Look": 890,
      "slide": 891,
      "replied": 892,
      "sho": 893,
      "amaz": 894,
      "lease": 895,
      "watch": 896,
      "showed": 897,
      "okay": 898,
      "cho": 899,
      "gan": 900,
      "leave": 901,
      "top": 902,
      "voice": 903,
      "Sarah": 904,
      "ip": 905,
      "This": 906,
      "fere": 907,
      "cook": 908,
      "tell": 909,
      "differe": 910,
      "mean": 911,
      "llow": 912,
      "cream": 913,
      "swing": 914,
      "rest": 915,
      "stick": 916,
      "watched": 917,
      "sing": 918,
      "cake": 919,
      "bright": 920,
      "follow": 921,
      "truck": 922,
      "everyone": 923,
      "pul": 924,
      "store": 925,
      "cou": 926,
      "bow": 927,
      "been": 928,
      "sn": 929,
      "boat": 930,
      "quickly": 931,
      "strong": 932,
      "sure": 933,
      "ner": 934,
      "Jane": 935,
      "rabbit": 936,
      "different": 937,
      "stand": 938,
      "tor": 939,
      "Maybe": 940,
      "curi": 941,
      "goodbye": 942,
      "became": 943,
      "ward": 944,
      "high": 945,
      "closer": 946,
      "bre": 947,
      "oft": 948,
      "mag": 949,
      "does": 950,
      "unny": 951,
      "warm": 952,
      "ff": 953,
      "ance": 954,
      "Joe": 955,
      "ung": 956,
      "curious": 957,
      "ph": 958,
      "mis": 959,
      "ila": 960,
      "laugh": 961,
      "fav": 962,
      "andma": 963,
      "three": 964,
      "dress": 965,
      "Lila": 966,
      "tw": 967,
      "pie": 968,
      "ond": 969,
      "leep": 970,
      "open": 971,
      "ready": 972,
      "anymore": 973,
      "first": 974,
      "ached": 975,
      "flower": 976,
      "grabb": 977,
      "flo": 978,
      "butter": 979,
      "ired": 980,
      "hear": 981,
      "bit": 982,
      "In": 983,
      "kid": 984,
      "kit": 985,
      "pain": 986,
      "grabbed": 987,
      "squ": 988,
      "Don": 989,
      "ered": 990,
      "par": 991,
      "yel": 992,
      "isy": 993,
      "med": 994,
      "times": 995,
      "only": 996,
      "light": 997,
      "fell": 998,
      "table": 999,
      "Everyone": 1000,
      "Hel": 1001,
      "tow": 1002,
      "birds": 1003,
      "deli": 1004,
      "jumped": 1005,
      "fire": 1006,
      "ft": 1007,
      "glad": 1008,
      "ster": 1009,
      "sand": 1010,
      "chen": 1011,
      "kitchen": 1012,
      "dro": 1013,
      "pare": 1014,
      "air": 1015,
      "cut": 1016,
      "rock": 1017,
      "helped": 1018,
      "stop": 1019,
      "cket": 1020,
      "tr": 1021,
      "cont": 1022,
      "cr": 1023,
      "happened": 1024,
      "key": 1025,
      "Tommy": 1026,
      "fl": 1027,
      "bunny": 1028,
      "sees": 1029,
      "shouted": 1030,
      "story": 1031,
      "bal": 1032,
      "grass": 1033,
      "ash": 1034,
      "having": 1035,
      "reached": 1036,
      "yummy": 1037,
      "prin": 1038,
      "realized": 1039,
      "brother": 1040,
      "lady": 1041,
      "shed": 1042,
      "draw": 1043,
      "mum": 1044,
      "favor": 1045,
      "sweet": 1046,
      "din": 1047,
      "favorite": 1048,
      "ary": 1049,
      "through": 1050,
      "game": 1051,
      "coming": 1052,
      "cra": 1053,
      "piece": 1054,
      "zy": 1055,
      "bor": 1056,
      "que": 1057,
      "soft": 1058,
      "really": 1059,
      "Wh": 1060,
      "began": 1061,
      "pretend": 1062,
      "Now": 1063,
      "world": 1064,
      "tra": 1065,
      "olly": 1066,
      "ins": 1067,
      "done": 1068,
      "looks": 1069,
      "himself": 1070,
      "wel": 1071,
      "magic": 1072,
      "making": 1073,
      "col": 1074,
      "kids": 1075,
      "rel": 1076,
      "duck": 1077,
      "pond": 1078,
      "ba": 1079,
      "why": 1080,
      "nts": 1081,
      "prom": 1082,
      "waved": 1083,
      "fro": 1084,
      "tired": 1085,
      "move": 1086,
      "ater": 1087,
      "fix": 1088,
      "fill": 1089,
      "worry": 1090,
      "mouse": 1091,
      "ped": 1092,
      "cked": 1093,
      "cars": 1094,
      "Fin": 1095,
      "name": 1096,
      "paper": 1097,
      "Wow": 1098,
      "parents": 1099,
      "cold": 1100,
      "aisy": 1101,
      "Sally": 1102,
      "touch": 1103,
      "thank": 1104,
      "ike": 1105,
      "catch": 1106,
      "funny": 1107,
      "seen": 1108,
      "pro": 1109,
      "ple": 1110,
      "stre": 1111,
      "gu": 1112,
      "hold": 1113,
      "another": 1114,
      "There": 1115,
      "river": 1116,
      "hopped": 1117,
      "cried": 1118,
      "oney": 1119,
      "ds": 1120,
      "cool": 1121,
      "doing": 1122,
      "blocks": 1123,
      "\".": 1124,
      "farm": 1125,
      "surprise": 1126,
      "ons": 1127,
      "age": 1128,
      "cor": 1129,
      "green": 1130,
      "uff": 1131,
      "anc": 1132,
      "years": 1133,
      "mess": 1134,
      "turned": 1135,
      "close": 1136,
      "wood": 1137,
      "hind": 1138,
      "floor": 1139,
      "sat": 1140,
      "climb": 1141,
      "full": 1142,
      "trees": 1143,
      "ppy": 1144,
      "running": 1145,
      "worked": 1146,
      "lesson": 1147,
      "window": 1148,
      "wear": 1149,
      "dark": 1150,
      "behind": 1151,
      "likes": 1152,
      "wished": 1153,
      "aby": 1154,
      "ign": 1155,
      "yellow": 1156,
      "andy": 1157,
      "ation": 1158,
      "ger": 1159,
      "bag": 1160,
      "swim": 1161,
      "happily": 1162,
      "Daisy": 1163,
      "Jim": 1164,
      "Em": 1165,
      "cast": 1166,
      "To": 1167,
      "surprised": 1168,
      "sleep": 1169,
      "Benny": 1170,
      "frog": 1171,
      "butterfly": 1172,
      "pet": 1173,
      "cious": 1174,
      "arri": 1175,
      "yard": 1176,
      "carefully": 1177,
      "hole": 1178,
      "Hello": 1179,
      "remembered": 1180,
      "lost": 1181,
      "slow": 1182,
      "held": 1183,
      "race": 1184,
      "At": 1185,
      "needed": 1186,
      "cla": 1187,
      "buy": 1188,
      "Billy": 1189,
      "left": 1190,
      "far": 1191,
      "bar": 1192,
      "reed": 1193,
      "dream": 1194,
      "fair": 1195,
      "anything": 1196,
      "spot": 1197,
      "enjoyed": 1198,
      "wrong": 1199,
      "chil": 1200,
      "tri": 1201,
      "dren": 1202,
      "Finally": 1203,
      "followed": 1204,
      "children": 1205,
      "stran": 1206,
      "ross": 1207,
      "delicious": 1208,
      "bug": 1209,
      "hung": 1210,
      "Molly": 1211,
      "please": 1212,
      "finished": 1213,
      "mar": 1214,
      "bot": 1215,
      "friendly": 1216,
      "contin": 1217,
      "dir": 1218,
      "snow": 1219,
      "herself": 1220,
      "tall": 1221,
      "cess": 1222,
      "agreed": 1223,
      "mou": 1224,
      "vis": 1225,
      "spo": 1226,
      "hill": 1227,
      "Amy": 1228,
      "understand": 1229,
      "oken": 1230,
      "hot": 1231,
      "ued": 1232,
      "else": 1233,
      "hid": 1234,
      "oo": 1235,
      "ens": 1236,
      "arrived": 1237,
      "ined": 1238,
      "gent": 1239,
      "wonderful": 1240,
      "broken": 1241,
      "ings": 1242,
      "might": 1243,
      "tight": 1244,
      "em": 1245,
      "forgot": 1246,
      "land": 1247,
      "ield": 1248,
      "baby": 1249,
      "gl": 1250,
      "colors": 1251,
      "Jen": 1252,
      "ient": 1253,
      "most": 1254,
      "sit": 1255,
      "build": 1256,
      "gone": 1257,
      "filled": 1258,
      "erous": 1259,
      "ather": 1260,
      "song": 1261,
      "mat": 1262,
      "Why": 1263,
      "squir": 1264,
      "wards": 1265,
      "fr": 1266,
      "books": 1267,
      "ange": 1268,
      "someone": 1269,
      "row": 1270,
      "continued": 1271,
      "creat": 1272,
      "asure": 1273,
      "pat": 1274,
      "castle": 1275,
      "lion": 1276,
      "fight": 1277,
      "wants": 1278,
      "mother": 1279,
      "Gr": 1280,
      "pink": 1281,
      "squirrel": 1282,
      "leaves": 1283,
      "getting": 1284,
      "ves": 1285,
      "enough": 1286,
      "Go": 1287,
      "morning": 1288,
      "fru": 1289,
      "OK": 1290,
      "moment": 1291,
      "av": 1292,
      "finally": 1293,
      "fall": 1294,
      "stayed": 1295,
      "cha": 1296,
      "cookies": 1297,
      "break": 1298,
      "gon": 1299,
      "poin": 1300,
      "beach": 1301,
      "few": 1302,
      "sometimes": 1303,
      "scary": 1304,
      "je": 1305,
      "ju": 1306,
      "fect": 1307,
      "dinner": 1308,
      "tast": 1309,
      "hungry": 1310,
      "ence": 1311,
      "grandma": 1312,
      "Come": 1313,
      "wet": 1314,
      "amazing": 1315,
      "ze": 1316,
      "trying": 1317,
      "pack": 1318,
      "whe": 1319,
      "plain": 1320,
      "daddy": 1321,
      "perfect": 1322,
      "dr": 1323,
      "makes": 1324,
      "others": 1325,
      "asks": 1326,
      "climbed": 1327,
      "pes": 1328,
      "pictures": 1329,
      "cover": 1330,
      "talk": 1331,
      "tail": 1332,
      "listened": 1333,
      "kay": 1334,
      "mus": 1335,
      "tle": 1336,
      "ton": 1337,
      "icy": 1338,
      "white": 1339,
      "fur": 1340,
      "smiles": 1341,
      "Jill": 1342,
      "ballo": 1343,
      "roll": 1344,
      "wall": 1345,
      "clothe": 1346,
      "alone": 1347,
      "appear": 1348,
      "bus": 1349,
      "plan": 1350,
      "clothes": 1351,
      "oup": 1352,
      "spl": 1353,
      "puppy": 1354,
      "ious": 1355,
      "ot": 1356,
      "train": 1357,
      "Oh": 1358,
      "ated": 1359,
      "wasn": 1360,
      "brought": 1361,
      "everything": 1362,
      "strange": 1363,
      "sear": 1364,
      "met": 1365,
      "spark": 1366,
      "dang": 1367,
      "grow": 1368,
      "deep": 1369,
      "woods": 1370,
      "pulled": 1371,
      "bike": 1372,
      "sail": 1373,
      "Be": 1374,
      "ride": 1375,
      "pping": 1376,
      "Daddy": 1377,
      "treat": 1378,
      "fox": 1379,
      "mi": 1380,
      "ose": 1381,
      "af": 1382,
      "Mama": 1383,
      "uffy": 1384,
      "Soon": 1385,
      "ucky": 1386,
      "pen": 1387,
      "hor": 1388,
      "Some": 1389,
      "waited": 1390,
      "music": 1391,
      "gi": 1392,
      "amazed": 1393,
      "danc": 1394,
      "teddy": 1395,
      "hide": 1396,
      "nap": 1397,
      "ses": 1398,
      "bath": 1399,
      "towards": 1400,
      "field": 1401,
      "pur": 1402,
      "thy": 1403,
      "All": 1404,
      "flying": 1405,
      "zz": 1406,
      "sis": 1407,
      "owner": 1408,
      "whis": 1409,
      "miss": 1410,
      "silly": 1411,
      "shared": 1412,
      "runs": 1413,
      "belie": 1414,
      "cloud": 1415,
      "iss": 1416,
      "visit": 1417,
      "lake": 1418,
      "living": 1419,
      "job": 1420,
      "ames": 1421,
      "promised": 1422,
      "pers": 1423,
      "moral": 1424,
      "Okay": 1425,
      "dance": 1426,
      "thinks": 1427,
      "iet": 1428,
      "Mary": 1429,
      "sister": 1430,
      "ually": 1431,
      "party": 1432,
      "mind": 1433,
      "quiet": 1434,
      "ises": 1435,
      "ps": 1436,
      "money": 1437,
      "Sure": 1438,
      "board": 1439,
      "must": 1440,
      "gs": 1441,
      "worried": 1442,
      "Just": 1443,
      "chair": 1444,
      "ateful": 1445,
      "ap": 1446,
      "answ": 1447,
      "grateful": 1448,
      "slowly": 1449,
      "colorful": 1450,
      "cup": 1451,
      "faster": 1452,
      "ment": 1453,
      "pieces": 1454,
      "bran": 1455,
      "Mr": 1456,
      "pass": 1457,
      "lice": 1458,
      "explain": 1459,
      "hes": 1460,
      "broke": 1461,
      "ctor": 1462,
      "such": 1463,
      "gif": 1464,
      "bigger": 1465,
      "ich": 1466,
      "snack": 1467,
      "reach": 1468,
      "pull": 1469,
      "thre": 1470,
      "dry": 1471,
      "heav": 1472,
      "monster": 1473,
      "plant": 1474,
      "join": 1475,
      "win": 1476,
      "ele": 1477,
      "black": 1478,
      "candy": 1479,
      "words": 1480,
      "blan": 1481,
      "scream": 1482,
      "treasure": 1483,
      "magical": 1484,
      "dangerous": 1485,
      "sign": 1486,
      "Mum": 1487,
      "dragon": 1488,
      "gra": 1489,
      "across": 1490,
      "everywhere": 1491,
      "helping": 1492,
      "Jimmy": 1493,
      "dri": 1494,
      "farmer": 1495,
      "Hi": 1496,
      "Grandma": 1497,
      "smart": 1498,
      "start": 1499,
      "mouth": 1500,
      "smel": 1501,
      "min": 1502,
      "rot": 1503,
      "ourse": 1504,
      "bee": 1505,
      "ng": 1506,
      "igg": 1507,
      "stepped": 1508,
      "threw": 1509,
      "heavy": 1510,
      "tower": 1511,
      "dolls": 1512,
      "bowl": 1513,
      "appeared": 1514,
      "bite": 1515,
      "dirty": 1516,
      "same": 1517,
      "swa": 1518,
      "twins": 1519,
      "believe": 1520,
      "crying": 1521,
      "mix": 1522,
      "Please": 1523,
      "ident": 1524,
      "sc": 1525,
      "doctor": 1526,
      "shar": 1527,
      "princess": 1528,
      "heal": 1529,
      "wouldn": 1530,
      "har": 1531,
      "hig": 1532,
      "chool": 1533,
      "closed": 1534,
      "unch": 1535,
      "ub": 1536,
      "stuck": 1537,
      "school": 1538,
      "press": 1539,
      "bas": 1540,
      "spr": 1541,
      "balloon": 1542,
      "stu": 1543,
      "swam": 1544,
      "teac": 1545,
      "Emma": 1546,
      "brown": 1547,
      "sy": 1548,
      "hoped": 1549,
      "suddenly": 1550,
      "iting": 1551,
      "paint": 1552,
      "town": 1553,
      "pow": 1554,
      "eating": 1555,
      "feels": 1556,
      "course": 1557,
      "clapped": 1558,
      "plane": 1559,
      "cray": 1560,
      "da": 1561,
      "stood": 1562,
      "wr": 1563,
      "ek": 1564,
      "gentle": 1565,
      "fairy": 1566,
      "val": 1567,
      "comfor": 1568,
      "ventually": 1569,
      "button": 1570,
      "takes": 1571,
      "basket": 1572,
      "child": 1573,
      "free": 1574,
      "drove": 1575,
      "welcome": 1576,
      "pushed": 1577,
      "shine": 1578,
      "round": 1579,
      "neigh": 1580,
      "kno": 1581,
      "Inside": 1582,
      "higher": 1583,
      "without": 1584,
      "kiss": 1585,
      "today": 1586,
      "cident": 1587,
      "swings": 1588,
      "stead": 1589,
      "blanket": 1590,
      "str": 1591,
      "teacher": 1592,
      "ire": 1593,
      "ches": 1594,
      "phone": 1595,
      "sea": 1596,
      "games": 1597,
      "cheered": 1598,
      "ben": 1599,
      "moved": 1600,
      "wings": 1601,
      "jour": 1602,
      "explained": 1603,
      "longer": 1604,
      "ible": 1605,
      "accident": 1606,
      "wise": 1607,
      "late": 1608,
      "along": 1609,
      "well": 1610,
      "wish": 1611,
      "Their": 1612,
      "Fl": 1613,
      "noises": 1614,
      "itting": 1615,
      "sang": 1616,
      "ling": 1617,
      "happen": 1618,
      "throw": 1619,
      "pol": 1620,
      "stone": 1621,
      "hugs": 1622,
      "turns": 1623,
      "ney": 1624,
      "phant": 1625,
      "stories": 1626,
      "mine": 1627,
      "shoes": 1628,
      "lone": 1629,
      "apple": 1630,
      "though": 1631,
      "forget": 1632,
      "singing": 1633,
      "adventures": 1634,
      "neck": 1635,
      "trou": 1636,
      "jar": 1637,
      "upset": 1638,
      "fence": 1639,
      "lunch": 1640,
      "lonely": 1641,
      "del": 1642,
      "El": 1643,
      "elephant": 1644,
      "secre": 1645,
      "heart": 1646,
      "street": 1647,
      "oun": 1648,
      "young": 1649,
      "belong": 1650,
      "Pe": 1651,
      "ntain": 1652,
      "dist": 1653,
      "shop": 1654,
      "Fluffy": 1655,
      "itch": 1656,
      "nee": 1657,
      "monkey": 1658,
      "ours": 1659,
      "shook": 1660,
      "exploring": 1661,
      "Sammy": 1662,
      "pocket": 1663,
      "sent": 1664,
      "add": 1665,
      "nearby": 1666,
      "soup": 1667,
      "ughty": 1668,
      "Le": 1669,
      "owl": 1670,
      "naughty": 1671,
      "My": 1672,
      "bring": 1673,
      "stars": 1674,
      "fused": 1675,
      "ship": 1676,
      "caught": 1677,
      "woke": 1678,
      "backyard": 1679,
      "seemed": 1680,
      "des": 1681,
      "body": 1682,
      "cal": 1683,
      "dropped": 1684,
      "relie": 1685,
      "rocks": 1686,
      "att": 1687,
      "ughter": 1688,
      "drink": 1689,
      "bs": 1690,
      "coat": 1691,
      "ming": 1692,
      "daughter": 1693,
      "taking": 1694,
      "purple": 1695,
      "mail": 1696,
      "fit": 1697,
      "ions": 1698,
      "orange": 1699,
      "shapes": 1700,
      "hello": 1701,
      "driver": 1702,
      "cow": 1703,
      "pil": 1704,
      "bench": 1705,
      "hit": 1706,
      "fing": 1707,
      "comes": 1708,
      "sounds": 1709,
      "ier": 1710,
      "wondered": 1711,
      "busy": 1712,
      "hur": 1713,
      "tiny": 1714,
      "mil": 1715,
      "Later": 1716,
      "past": 1717,
      "nest": 1718,
      "ull": 1719,
      "erful": 1720,
      "rainbow": 1721,
      "nose": 1722,
      "sitting": 1723,
      "ese": 1724,
      "amp": 1725,
      "touc": 1726,
      "kite": 1727,
      "juice": 1728,
      "mer": 1729,
      "nothing": 1730,
      "holding": 1731,
      "sco": 1732,
      "smell": 1733,
      "brea": 1734,
      "arms": 1735,
      "mach": 1736,
      "pra": 1737,
      "chas": 1738,
      "thday": 1739,
      "pig": 1740,
      "sug": 1741,
      "With": 1742,
      "Good": 1743,
      "count": 1744,
      "band": 1745,
      "cir": 1746,
      "cute": 1747,
      "ining": 1748,
      "loves": 1749,
      "secret": 1750,
      "oom": 1751,
      "branch": 1752,
      "pper": 1753,
      "quest": 1754,
      "shell": 1755,
      "raid": 1756,
      "relieved": 1757,
      "Of": 1758,
      "afraid": 1759,
      "idge": 1760,
      "ars": 1761,
      "promise": 1762,
      "forever": 1763,
      "How": 1764,
      "carry": 1765,
      "sick": 1766,
      "Jenny": 1767,
      "days": 1768,
      "gift": 1769,
      "boun": 1770,
      "hu": 1771,
      "uni": 1772,
      "peace": 1773,
      "Tweet": 1774,
      "Ted": 1775,
      "bucket": 1776,
      "touched": 1777,
      "huge": 1778,
      "orn": 1779,
      "covered": 1780,
      "push": 1781,
      "patient": 1782,
      "live": 1783,
      "birthday": 1784,
      "eg": 1785,
      "letter": 1786,
      "cheese": 1787,
      "terest": 1788,
      "interest": 1789,
      "sunny": 1790,
      "exciting": 1791,
      "onto": 1792,
      "bush": 1793,
      "life": 1794,
      "wra": 1795,
      "laughing": 1796,
      "wand": 1797,
      "act": 1798,
      "su": 1799,
      "gest": 1800,
      "creature": 1801,
      "ittens": 1802,
      "bread": 1803,
      "Hey": 1804,
      "gged": 1805,
      "kick": 1806,
      "imag": 1807,
      "vel": 1808,
      "hope": 1809,
      "craw": 1810,
      "cozy": 1811,
      "ness": 1812,
      "Emily": 1813,
      "swimming": 1814,
      "journey": 1815,
      "suc": 1816,
      "coun": 1817,
      "bottle": 1818,
      "gives": 1819,
      "instead": 1820,
      "milk": 1821,
      "net": 1822,
      "eas": 1823,
      "watching": 1824,
      "spin": 1825,
      "lucky": 1826,
      "ced": 1827,
      "accidentally": 1828,
      "ian": 1829,
      "sunshine": 1830,
      "cave": 1831,
      "va": 1832,
      "ade": 1833,
      "sharp": 1834,
      "talked": 1835,
      "puts": 1836,
      "gen": 1837,
      "colle": 1838,
      "pudd": 1839,
      "pointed": 1840,
      "honey": 1841,
      "gather": 1842,
      "road": 1843,
      "di": 1844,
      "bru": 1845,
      "neighbor": 1846,
      "ye": 1847,
      "bought": 1848,
      "smiling": 1849,
      "anyone": 1850,
      "searched": 1851,
      "later": 1852,
      "sli": 1853,
      "sandw": 1854,
      "nic": 1855,
      "itten": 1856,
      "apples": 1857,
      "shelf": 1858,
      "part": 1859,
      "storm": 1860,
      "Where": 1861,
      "snake": 1862,
      "shes": 1863,
      "blem": 1864,
      "problem": 1865,
      "meet": 1866,
      "ize": 1867,
      "wide": 1868,
      "word": 1869,
      "irt": 1870,
      "inv": 1871,
      "wom": 1872,
      "ugg": 1873,
      "woman": 1874,
      "healthy": 1875,
      "interesting": 1876,
      "œI": 1877,
      "spoon": 1878,
      "circle": 1879,
      "tasty": 1880,
      "pile": 1881,
      "vill": 1882,
      "ducks": 1883,
      "zoom": 1884,
      "eag": 1885,
      "rope": 1886,
      "num": 1887,
      "spid": 1888,
      "clever": 1889,
      "prote": 1890,
      "matter": 1891,
      "trouble": 1892,
      "bled": 1893,
      "andpa": 1894,
      "crayons": 1895,
      "ast": 1896,
      "clouds": 1897,
      "person": 1898,
      "roar": 1899,
      "log": 1900,
      "gigg": 1901,
      "path": 1902,
      "fron": 1903,
      "Are": 1904,
      "feather": 1905,
      "front": 1906,
      "ert": 1907,
      "comfortable": 1908,
      "shining": 1909,
      "smelled": 1910,
      "dest": 1911,
      "wash": 1912,
      "Jake": 1913,
      "present": 1914,
      "tea": 1915,
      "pract": 1916,
      "spotted": 1917,
      "splash": 1918,
      "minut": 1919,
      "screamed": 1920,
      "zoo": 1921,
      "respe": 1922,
      "organ": 1923,
      "war": 1924,
      "mud": 1925,
      "orm": 1926,
      "lock": 1927,
      "danced": 1928,
      "hop": 1929,
      "seat": 1930,
      "which": 1931,
      "wheel": 1932,
      "berries": 1933,
      "puzz": 1934,
      "Mittens": 1935,
      "myster": 1936,
      "teach": 1937,
      "snowman": 1938,
      "Ro": 1939,
      "isa": 1940,
      "thin": 1941,
      "last": 1942,
      "lay": 1943,
      "pan": 1944,
      "asleep": 1945,
      "horse": 1946,
      "ned": 1947,
      "lovely": 1948,
      "answer": 1949,
      "rolled": 1950,
      "Together": 1951,
      "gently": 1952,
      "bark": 1953,
      "wearing": 1954,
      "places": 1955,
      "giant": 1956,
      "goes": 1957,
      "search": 1958,
      "fli": 1959,
      "whole": 1960,
      "wild": 1961,
      "ser": 1962,
      "Lisa": 1963,
      "gy": 1964,
      "string": 1965,
      "pill": 1966,
      "Sometimes": 1967,
      "If": 1968,
      "fruit": 1969,
      "corner": 1970,
      "impress": 1971,
      "dirt": 1972,
      "respect": 1973,
      "tun": 1974,
      "worm": 1975,
      "tries": 1976,
      "ones": 1977,
      "corn": 1978,
      "confused": 1979,
      "card": 1980,
      "Mummy": 1981,
      "vie": 1982,
      "bubb": 1983,
      "tasted": 1984,
      "slid": 1985,
      "rubb": 1986,
      "cean": 1987,
      "eth": 1988,
      "ocean": 1989,
      "picnic": 1990,
      "forgive": 1991,
      "rude": 1992,
      "tool": 1993,
      "ased": 1994,
      "machine": 1995,
      "spent": 1996,
      "teeth": 1997,
      "drive": 1998,
      "rich": 1999,
      "itty": 2000,
      "bel": 2001,
      "step": 2002,
      "uce": 2003,
      "wave": 2004,
      "oven": 2005,
      "pour": 2006,
      "calm": 2007,
      "pretended": 2008,
      "delight": 2009,
      "pop": 2010,
      "cookie": 2011,
      "spider": 2012,
      "feet": 2013,
      "furry": 2014,
      "lar": 2015,
      "faces": 2016,
      "izz": 2017,
      "Peter": 2018,
      "fold": 2019,
      "Little": 2020,
      "shy": 2021,
      "erly": 2022,
      "swe": 2023,
      "helpful": 2024,
      "eventually": 2025,
      "finish": 2026,
      "test": 2027,
      "chick": 2028,
      "Here": 2029,
      "ity": 2030,
      "mountain": 2031,
      "hang": 2032,
      "peaceful": 2033,
      "talking": 2034,
      "shr": 2035,
      "pread": 2036,
      "stair": 2037,
      "mel": 2038,
      "res": 2039,
      "lace": 2040,
      "morrow": 2041,
      "tomorrow": 2042,
      "spread": 2043,
      "chocol": 2044,
      "tid": 2045,
      "ladder": 2046,
      "protect": 2047,
      "ipped": 2048,
      "village": 2049,
      "sol": 2050,
      "smoo": 2051,
      "shad": 2052,
      "remind": 2053,
      "coin": 2054,
      "foot": 2055,
      "cele": 2056,
      "write": 2057,
      "Teddy": 2058,
      "couch": 2059,
      "building": 2060,
      "stret": 2061,
      "bell": 2062,
      "joke": 2063,
      "seek": 2064,
      "bugs": 2065,
      "cer": 2066,
      "wore": 2067,
      "chased": 2068,
      "fighting": 2069,
      "ife": 2070,
      "smooth": 2071,
      "trip": 2072,
      "treats": 2073,
      "blew": 2074,
      "Sus": 2075,
      "ighed": 2076,
      "spit": 2077,
      "cage": 2078,
      "Who": 2079,
      "barr": 2080,
      "pool": 2081,
      "waiting": 2082,
      "embarr": 2083,
      "hiding": 2084,
      "mir": 2085,
      "kets": 2086,
      "knee": 2087,
      "Fred": 2088,
      "puddle": 2089,
      "den": 2090,
      "necklace": 2091,
      "shake": 2092,
      "Re": 2093,
      "rank": 2094,
      "stir": 2095,
      "grab": 2096,
      "whenever": 2097,
      "selfish": 2098,
      "ban": 2099,
      "cross": 2100,
      "maybe": 2101,
      "songs": 2102,
      "embarrass": 2103,
      "ten": 2104,
      "ult": 2105,
      "collect": 2106,
      "cannot": 2107,
      "hum": 2108,
      "cloth": 2109,
      "Everywhere": 2110,
      "chocolate": 2111,
      "taste": 2112,
      "Stop": 2113,
      "lves": 2114,
      "paw": 2115,
      "large": 2116,
      "leaf": 2117,
      "sack": 2118,
      "fixed": 2119,
      "Ann": 2120,
      "barked": 2121,
      "banan": 2122,
      "tidy": 2123,
      "umpy": 2124,
      "spray": 2125,
      "colour": 2126,
      "stra": 2127,
      "rag": 2128,
      "Pa": 2129,
      "celebr": 2130,
      "cord": 2131,
      "carrot": 2132,
      "prince": 2133,
      "asha": 2134,
      "oin": 2135,
      "onest": 2136,
      "tu": 2137,
      "ungle": 2138,
      "tie": 2139,
      "Johnny": 2140,
      "rots": 2141,
      "shirt": 2142,
      "deter": 2143,
      "Alice": 2144,
      "jungle": 2145,
      "missed": 2146,
      "cape": 2147,
      "robot": 2148,
      "landed": 2149,
      "appoin": 2150,
      "forward": 2151,
      "embarrassed": 2152,
      "jumping": 2153,
      "honest": 2154,
      "decor": 2155,
      "ee": 2156,
      "sque": 2157,
      "Help": 2158,
      "elly": 2159,
      "sticks": 2160,
      "trust": 2161,
      "moon": 2162,
      "hears": 2163,
      "Even": 2164,
      "scre": 2165,
      "TV": 2166,
      "creative": 2167,
      "sharing": 2168,
      "clear": 2169,
      "ending": 2170,
      "Rex": 2171,
      "polite": 2172,
      "success": 2173,
      "adow": 2174,
      "carrots": 2175,
      "knocked": 2176,
      "disappoin": 2177,
      "breath": 2178,
      "meadow": 2179,
      "cted": 2180,
      "cop": 2181,
      "getable": 2182,
      "hero": 2183,
      "While": 2184,
      "tightly": 2185,
      "vegetable": 2186,
      "meant": 2187,
      "ashamed": 2188,
      "sour": 2189,
      "legs": 2190,
      "almost": 2191,
      "plate": 2192,
      "brush": 2193,
      "emp": 2194,
      "glow": 2195,
      "sup": 2196,
      "gray": 2197,
      "grew": 2198,
      "orry": 2199,
      "pillow": 2200,
      "empty": 2201,
      "tells": 2202,
      "Sorry": 2203,
      "whistle": 2204,
      "stairs": 2205,
      "gas": 2206,
      "rad": 2207,
      "understood": 2208,
      "ail": 2209,
      "coura": 2210,
      "sheep": 2211,
      "carried": 2212,
      "blow": 2213,
      "nut": 2214,
      "mark": 2215,
      "line": 2216,
      "yelled": 2217,
      "lemon": 2218,
      "ancy": 2219,
      "vous": 2220,
      "these": 2221,
      "hours": 2222,
      "disappointed": 2223,
      "police": 2224,
      "save": 2225,
      "snacks": 2226,
      "fla": 2227,
      "pay": 2228,
      "nods": 2229,
      "Leo": 2230,
      "block": 2231,
      "spital": 2232,
      "hospital": 2233,
      "sparkly": 2234,
      "gold": 2235,
      "Today": 2236,
      "Give": 2237,
      "kitten": 2238,
      "jewel": 2239,
      "ony": 2240,
      "Me": 2241,
      "ina": 2242,
      "flies": 2243,
      "bored": 2244,
      "seed": 2245,
      "generous": 2246,
      "frustr": 2247,
      "hidden": 2248,
      "taught": 2249,
      "ird": 2250,
      "Your": 2251,
      "knowing": 2252,
      "standing": 2253,
      "Mark": 2254,
      "bat": 2255,
      "crab": 2256,
      "chew": 2257,
      "scarf": 2258,
      "minutes": 2259,
      "group": 2260,
      "returned": 2261,
      "pir": 2262,
      "easy": 2263,
      "plants": 2264,
      "bedroom": 2265,
      "pizz": 2266,
      "pri": 2267,
      "mysterious": 2268,
      "waves": 2269,
      "thankful": 2270,
      "sage": 2271,
      "sighed": 2272,
      "ants": 2273,
      "wolf": 2274,
      "gun": 2275,
      "burn": 2276,
      "mined": 2277,
      "Susie": 2278,
      "powerful": 2279,
      "determined": 2280,
      "kin": 2281,
      "puzzle": 2282,
      "fear": 2283,
      "van": 2284,
      "spla": 2285,
      "dle": 2286,
      "fig": 2287,
      "balls": 2288,
      "match": 2289,
      "sleepy": 2290,
      "passed": 2291,
      "spicy": 2292,
      "shore": 2293,
      "sandwich": 2294,
      "note": 2295,
      "packed": 2296,
      "drew": 2297,
      "finger": 2298,
      "os": 2299,
      "law": 2300,
      "nervous": 2301,
      "jelly": 2302,
      "spoil": 2303,
      "frustrated": 2304,
      "bridge": 2305,
      "cy": 2306,
      "pizza": 2307,
      "messy": 2308,
      "fancy": 2309,
      "keeper": 2310,
      "saur": 2311,
      "gate": 2312,
      "closet": 2313,
      "era": 2314,
      "kissed": 2315,
      "feed": 2316,
      "sold": 2317,
      "spa": 2318,
      "osaur": 2319,
      "gathered": 2320,
      "poor": 2321,
      "pin": 2322,
      "excite": 2323,
      "hose": 2324,
      "bul": 2325,
      "cater": 2326,
      "caterpill": 2327,
      "flag": 2328,
      "berry": 2329,
      "grumpy": 2330,
      "dinosaur": 2331,
      "issor": 2332,
      "form": 2333,
      "iddle": 2334,
      "yourself": 2335,
      "whisper": 2336,
      "chest": 2337,
      "issors": 2338,
      "answered": 2339,
      "ken": 2340,
      "tent": 2341,
      "cries": 2342,
      "case": 2343,
      "working": 2344,
      "often": 2345,
      "week": 2346,
      "itter": 2347,
      "twirl": 2348,
      "hopping": 2349,
      "ugly": 2350,
      "scissors": 2351,
      "Bl": 2352,
      "tears": 2353,
      "lif": 2354,
      "gets": 2355,
      "ella": 2356,
      "towel": 2357,
      "mummy": 2358,
      "cand": 2359,
      "stum": 2360,
      "ensive": 2361,
      "fil": 2362,
      "lit": 2363,
      "deer": 2364,
      "expensive": 2365,
      "See": 2366,
      "izzy": 2367,
      "excitement": 2368,
      "Ch": 2369,
      "middle": 2370,
      "saved": 2371,
      "taken": 2372,
      "caterpillar": 2373,
      "true": 2374,
      "allow": 2375,
      "space": 2376,
      "Dan": 2377,
      "leg": 2378,
      "wagged": 2379,
      "pleased": 2380,
      "known": 2381,
      "class": 2382,
      "crown": 2383,
      "ignor": 2384,
      "picks": 2385,
      "fre": 2386,
      "boring": 2387,
      "Bobby": 2388,
      "vase": 2389,
      "pair": 2390,
      "espe": 2391,
      "asking": 2392,
      "licked": 2393,
      "boss": 2394,
      "au": 2395,
      "ual": 2396,
      "Lo": 2397,
      "jog": 2398,
      "son": 2399,
      "vegetables": 2400,
      "eld": 2401,
      "giggled": 2402,
      "wake": 2403,
      "lown": 2404,
      "Pet": 2405,
      "illed": 2406,
      "mistake": 2407,
      "change": 2408,
      "tig": 2409,
      "sugar": 2410,
      "glass": 2411,
      "father": 2412,
      "lying": 2413,
      "rocket": 2414,
      "stuff": 2415,
      "usual": 2416,
      "og": 2417,
      "cially": 2418,
      "especially": 2419,
      "number": 2420,
      "lose": 2421,
      "dancing": 2422,
      "clown": 2423,
      "ates": 2424,
      "Kitty": 2425,
      "exam": 2426,
      "sight": 2427,
      "medic": 2428,
      "kn": 2429,
      "ror": 2430,
      "inc": 2431,
      "moving": 2432,
      "Blue": 2433,
      "knight": 2434,
      "wip": 2435,
      "fruits": 2436,
      "Mandy": 2437,
      "drum": 2438,
      "Eventually": 2439,
      "fake": 2440,
      "soar": 2441,
      "bers": 2442,
      "Pete": 2443,
      "eggs": 2444,
      "nel": 2445,
      "locked": 2446,
      "walks": 2447,
      "iness": 2448,
      "distance": 2449,
      "pray": 2450,
      "cri": 2451,
      "glue": 2452,
      "bake": 2453,
      "medicine": 2454,
      "splashed": 2455,
      "bone": 2456,
      "flut": 2457,
      "ipe": 2458,
      "sweetie": 2459,
      "lly": 2460,
      "drawing": 2461,
      "disappeared": 2462,
      "smelly": 2463,
      "lead": 2464,
      "yal": 2465,
      "become": 2466,
      "Well": 2467,
      "feathers": 2468,
      "tory": 2469,
      "painting": 2470,
      "dogs": 2471,
      "moms": 2472,
      "calling": 2473,
      "aged": 2474,
      "Mar": 2475,
      "toes": 2476,
      "elderly": 2477,
      "bathroom": 2478,
      "playground": 2479,
      "order": 2480,
      "lazy": 2481,
      "incred": 2482,
      "weak": 2483,
      "rid": 2484,
      "mic": 2485,
      "Letâ": 2486,
      "mirror": 2487,
      "?\".": 2488,
      "rote": 2489,
      "questions": 2490,
      "wrote": 2491,
      "horn": 2492,
      "Br": 2493,
      "yog": 2494,
      "yours": 2495,
      "noisy": 2496,
      "micro": 2497,
      "boys": 2498,
      "ham": 2499,
      "suggest": 2500,
      "nod": 2501,
      "dol": 2502,
      "skipped": 2503,
      "Ellie": 2504,
      "fluffy": 2505,
      "wis": 2506,
      "eager": 2507,
      "dolph": 2508,
      "stones": 2509,
      "dish": 2510,
      "check": 2511,
      "giving": 2512,
      "End": 2513,
      "famous": 2514,
      "loyal": 2515,
      "rare": 2516,
      "sell": 2517,
      "fu": 2518,
      "ruined": 2519,
      "dig": 2520,
      "tape": 2521,
      "illi": 2522,
      "content": 2523,
      "figure": 2524,
      "drank": 2525,
      "march": 2526,
      "incredible": 2527,
      "team": 2528,
      "jam": 2529,
      "ating": 2530,
      "queen": 2531,
      "tro": 2532,
      "shows": 2533,
      "juicy": 2534,
      "zed": 2535,
      "chang": 2536,
      "tub": 2537,
      "Whe": 2538,
      "ator": 2539,
      "sailed": 2540,
      "rela": 2541,
      "relax": 2542,
      "measure": 2543,
      "Ella": 2544,
      "soap": 2545,
      "discovered": 2546,
      "Bella": 2547,
      "decide": 2548,
      "realised": 2549,
      "motor": 2550,
      "lamp": 2551,
      "swan": 2552,
      "needs": 2553,
      "borrow": 2554,
      "coins": 2555,
      "ears": 2556,
      "straw": 2557,
      "adventur": 2558,
      "fic": 2559,
      "fine": 2560,
      "supp": 2561,
      "aser": 2562,
      "branches": 2563,
      "extra": 2564,
      "cleaned": 2565,
      "runk": 2566,
      "als": 2567,
      "Brown": 2568,
      "eng": 2569,
      "Rose": 2570,
      "ately": 2571,
      "balance": 2572,
      "cient": 2573,
      "tiger": 2574,
      "lid": 2575,
      "chicken": 2576,
      "cher": 2577,
      "adventurous": 2578,
      "tag": 2579,
      "barn": 2580,
      "diffic": 2581,
      "eye": 2582,
      "wha": 2583,
      "offered": 2584,
      "bubbles": 2585,
      "map": 2586,
      "lifted": 2587,
      "organized": 2588,
      "colourful": 2589,
      "tom": 2590,
      "frown": 2591,
      "vide": 2592,
      "St": 2593,
      "difficult": 2594,
      "turt": 2595,
      "Bobo": 2596,
      "cheerful": 2597,
      "thick": 2598,
      "toug": 2599,
      "bottom": 2600,
      "smo": 2601,
      "selves": 2602,
      "happening": 2603,
      "unique": 2604,
      "gue": 2605,
      "chase": 2606,
      "alous": 2607,
      "knife": 2608,
      "Mrs": 2609,
      "jealous": 2610,
      "cil": 2611,
      "men": 2612,
      "island": 2613,
      "wrapped": 2614,
      "Grandpa": 2615,
      "arage": 2616,
      "fright": 2617,
      "ero": 2618,
      "weird": 2619,
      "garage": 2620,
      "managed": 2621,
      "hurts": 2622,
      "Ne": 2623,
      "once": 2624,
      "pencil": 2625,
      "imed": 2626,
      "Dave": 2627,
      "gust": 2628,
      "using": 2629,
      "boo": 2630,
      "learning": 2631,
      "crawled": 2632,
      "vest": 2633,
      "flash": 2634,
      "cro": 2635,
      "kindness": 2636,
      "saying": 2637,
      "ular": 2638,
      "sil": 2639,
      "tough": 2640,
      "balloons": 2641,
      "ured": 2642,
      "mighty": 2643,
      "market": 2644,
      "pointing": 2645,
      "added": 2646,
      "bald": 2647,
      "squee": 2648,
      "favour": 2649,
      "aw": 2650,
      "apo": 2651,
      "four": 2652,
      "harm": 2653,
      "oph": 2654,
      "louder": 2655,
      "Tweety": 2656,
      "batter": 2657,
      "edge": 2658,
      "spun": 2659,
      "guit": 2660,
      "harder": 2661,
      "norm": 2662,
      "successful": 2663,
      "apolog": 2664,
      "already": 2665,
      "Ow": 2666,
      "smoke": 2667,
      "ging": 2668,
      "choose": 2669,
      "whale": 2670,
      "fool": 2671,
      "pal": 2672,
      "valu": 2673,
      "libr": 2674,
      "lift": 2675,
      "agree": 2676,
      "unusual": 2677,
      "favourite": 2678,
      "dizzy": 2679,
      "enjoying": 2680,
      "shells": 2681,
      "pump": 2682,
      "hats": 2683,
      "record": 2684,
      "boxes": 2685,
      "dep": 2686,
      "courage": 2687,
      "belonged": 2688,
      "grace": 2689,
      "grown": 2690,
      "impressed": 2691,
      "lean": 2692,
      "uggled": 2693,
      "sword": 2694,
      "yell": 2695,
      "trucks": 2696,
      "city": 2697,
      "terri": 2698,
      "grand": 2699,
      "rough": 2700,
      "normal": 2701,
      "Soph": 2702,
      "trunk": 2703,
      "laughs": 2704,
      "ery": 2705,
      "Would": 2706,
      "Bu": 2707,
      "guitar": 2708,
      "loudly": 2709,
      "illiant": 2710,
      "banana": 2711,
      "turtle": 2712,
      "guess": 2713,
      "proudly": 2714,
      "rat": 2715,
      "dreamed": 2716,
      "brilliant": 2717,
      "scare": 2718,
      "ature": 2719,
      "circles": 2720,
      "ilt": 2721,
      "brothers": 2722,
      "stubb": 2723,
      "bossy": 2724,
      "cab": 2725,
      "escape": 2726,
      "against": 2727,
      "invited": 2728,
      "goat": 2729,
      "skin": 2730,
      "Ju": 2731,
      "suit": 2732,
      "port": 2733,
      "stream": 2734,
      "helps": 2735,
      "obed": 2736,
      "pee": 2737,
      "scr": 2738,
      "Lola": 2739,
      "comple": 2740,
      "frightened": 2741,
      "acce": 2742,
      "stri": 2743,
      "means": 2744,
      "birdie": 2745,
      "safely": 2746,
      "slipped": 2747,
      "buttons": 2748,
      "valuable": 2749,
      "ancient": 2750,
      "stubborn": 2751,
      "snee": 2752,
      "happiness": 2753,
      "stru": 2754,
      "study": 2755,
      "crayon": 2756,
      "walls": 2757,
      "cabin": 2758,
      "breakfast": 2759,
      "nail": 2760,
      "depend": 2761,
      "Ge": 2762,
      "aced": 2763,
      "obedient": 2764,
      "lights": 2765,
      "clay": 2766,
      "orge": 2767,
      "ination": 2768,
      "foolish": 2769,
      "knows": 2770,
      "Nemo": 2771,
      "falls": 2772,
      "notice": 2773,
      "graceful": 2774,
      "adm": 2775,
      "cate": 2776,
      "fier": 2777,
      "shadow": 2778,
      "sca": 2779,
      "fridge": 2780,
      "shape": 2781,
      "nicely": 2782,
      "fat": 2783,
      "clap": 2784,
      "movie": 2785,
      "houses": 2786,
      "cudd": 2787,
      "dreams": 2788,
      "grandpa": 2789,
      "nosy": 2790,
      "fierce": 2791,
      "guard": 2792,
      "rh": 2793,
      "bloom": 2794,
      "Will": 2795,
      "jac": 2796,
      "egg": 2797,
      "delicate": 2798,
      "office": 2799,
      "ext": 2800,
      "keys": 2801,
      "ado": 2802,
      "toma": 2803,
      "design": 2804,
      "compet": 2805,
      "excla": 2806,
      "suggested": 2807,
      "dead": 2808,
      "wagon": 2809,
      "shark": 2810,
      "rubbed": 2811,
      "exclaimed": 2812,
      "kinds": 2813,
      "mixed": 2814,
      "wiped": 2815,
      "useful": 2816,
      "competit": 2817,
      "vi": 2818,
      "poured": 2819,
      "news": 2820,
      "tools": 2821,
      "thoughtful": 2822,
      "Next": 2823,
      "sounded": 2824,
      "aunt": 2825,
      "stove": 2826,
      "atch": 2827,
      "cam": 2828,
      "explored": 2829,
      "excitedly": 2830,
      "wing": 2831,
      "rose": 2832,
      "clock": 2833,
      "ti": 2834,
      "ountain": 2835,
      "George": 2836,
      "bags": 2837,
      "playful": 2838,
      "Whenever": 2839,
      "!\".": 2840,
      "frag": 2841,
      "crack": 2842,
      "bove": 2843,
      "meal": 2844,
      "fresh": 2845,
      "epend": 2846,
      "dough": 2847,
      "vice": 2848,
      "cart": 2849,
      "fountain": 2850,
      "weal": 2851,
      "dom": 2852,
      "Ducky": 2853,
      "Ho": 2854,
      "mes": 2855,
      "changed": 2856,
      "spoiled": 2857,
      "themselves": 2858,
      "bushes": 2859,
      "stumbled": 2860,
      "bounce": 2861,
      "showing": 2862,
      "print": 2863,
      "angel": 2864,
      "independ": 2865,
      "witch": 2866,
      "above": 2867,
      "fragile": 2868,
      "smaller": 2869,
      "fingers": 2870,
      "ray": 2871,
      "robe": 2872,
      "reg": 2873,
      "ipp": 2874,
      "zip": 2875,
      "hun": 2876,
      "dependable": 2877,
      "raced": 2878,
      "sof": 2879,
      "spinning": 2880,
      "ines": 2881,
      "rode": 2882,
      "tele": 2883,
      "arrow": 2884,
      "seem": 2885,
      "roof": 2886,
      "dge": 2887,
      "stretch": 2888,
      "built": 2889,
      "arry": 2890,
      "brightly": 2891,
      "handed": 2892,
      "practice": 2893,
      "orig": 2894,
      "cur": 2895,
      "inal": 2896,
      "delighted": 2897,
      "admired": 2898,
      "cone": 2899,
      "enorm": 2900,
      "enormous": 2901,
      "counted": 2902,
      "Toby": 2903,
      "kicked": 2904,
      "Mike": 2905,
      "cing": 2906,
      "shone": 2907,
      "twig": 2908,
      "independent": 2909,
      "oc": 2910,
      "reminded": 2911,
      "cube": 2912,
      "lli": 2913,
      "acorn": 2914,
      "solve": 2915,
      "hammer": 2916,
      "sauce": 2917,
      "bitter": 2918,
      "bees": 2919,
      "snif": 2920,
      "chir": 2921,
      "iver": 2922,
      "original": 2923,
      "memor": 2924,
      "whispered": 2925,
      "hoop": 2926,
      "wrap": 2927,
      "anut": 2928,
      "chose": 2929,
      "umbre": 2930,
      "steal": 2931,
      "lolli": 2932,
      "sal": 2933,
      "stronger": 2934,
      "serious": 2935,
      "jolly": 2936,
      "tunnel": 2937,
      "parrot": 2938,
      "beak": 2939,
      "popcorn": 2940,
      "tummy": 2941,
      "boats": 2942,
      "spend": 2943,
      "gum": 2944,
      "terrible": 2945,
      "painted": 2946,
      "œYes": 2947,
      "post": 2948,
      "allowed": 2949,
      "hairy": 2950,
      "moder": 2951,
      "rushed": 2952,
      "cleaning": 2953,
      "bean": 2954,
      "reli": 2955,
      "unknown": 2956,
      "joined": 2957,
      "Joey": 2958,
      "finding": 2959,
      "Mil": 2960,
      "dust": 2961,
      "gasped": 2962,
      "ended": 2963,
      "leaving": 2964,
      "load": 2965,
      "tem": 2966,
      "tti": 2967,
      "Bear": 2968,
      "pota": 2969,
      "picking": 2970,
      "erry": 2971,
      "salad": 2972,
      "pumpkin": 2973,
      "power": 2974,
      "upid": 2975,
      "metal": 2976,
      "clum": 2977,
      "amond": 2978,
      "view": 2979,
      "cheer": 2980,
      "vet": 2981,
      "toast": 2982,
      "bump": 2983,
      "reliable": 2984,
      "dove": 2985,
      "half": 2986,
      "sink": 2987,
      "tank": 2988,
      "fort": 2989,
      "barber": 2990,
      "yet": 2991,
      "dolphin": 2992,
      "Bill": 2993,
      "uring": 2994,
      "those": 2995,
      "Kim": 2996,
      "diamond": 2997,
      "doesn": 2998,
      "forth": 2999,
      "nur": 3000,
      "liz": 3001,
      "hay": 3002,
      "stat": 3003,
      "hetti": 3004,
      "aghetti": 3005,
      "ob": 3006,
      "advice": 3007,
      "modern": 3008,
      "thinking": 3009,
      "fed": 3010,
      "regular": 3011,
      "gem": 3012,
      "holds": 3013,
      "pirate": 3014,
      "stupid": 3015,
      "marble": 3016,
      "wealthy": 3017,
      "create": 3018,
      "ugged": 3019,
      "ingred": 3020,
      "ingredient": 3021,
      "Paul": 3022,
      "yarn": 3023,
      "sleeping": 3024,
      "clumsy": 3025,
      "telling": 3026,
      "Polly": 3027,
      "searching": 3028,
      "lex": 3029,
      "ilty": 3030,
      "Andy": 3031,
      "Char": 3032,
      "guilty": 3033,
      "peanut": 3034,
      "ject": 3035,
      "spaghetti": 3036,
      "flex": 3037,
      "goose": 3038,
      "Sophie": 3039,
      "œWhat": 3040,
      "glo": 3041,
      "bble": 3042,
      "compass": 3043,
      "noon": 3044,
      "patch": 3045,
      "engine": 3046,
      "cane": 3047,
      "ges": 3048,
      "opens": 3049,
      "stage": 3050,
      "square": 3051,
      "thunder": 3052,
      "Alex": 3053,
      "lla": 3054,
      "cco": 3055,
      "crazy": 3056,
      "umbrella": 3057,
      "camera": 3058,
      "lope": 3059,
      "popul": 3060,
      "cod": 3061,
      "driving": 3062,
      "beet": 3063,
      "popular": 3064,
      "lives": 3065,
      "washed": 3066,
      "shiver": 3067,
      "thirst": 3068,
      "roy": 3069,
      "tern": 3070,
      "carrying": 3071,
      "illa": 3072,
      "dull": 3073,
      "dreaming": 3074,
      "Bye": 3075,
      "missing": 3076,
      "flexible": 3077,
      "brace": 3078,
      "sparkled": 3079,
      "Ru": 3080,
      "isted": 3081,
      "œIt": 3082,
      "truth": 3083,
      "friendship": 3084,
      "seeds": 3085,
      "rise": 3086,
      "stal": 3087,
      "impressive": 3088,
      "jacket": 3089,
      "tied": 3090,
      "library": 3091,
      "sne": 3092,
      "careless": 3093,
      "deliver": 3094,
      "wander": 3095,
      "ations": 3096,
      "imagined": 3097,
      "nature": 3098,
      "reward": 3099,
      "handle": 3100,
      "ley": 3101,
      "tered": 3102,
      "destroy": 3103,
      "ingredients": 3104,
      "sty": 3105,
      "verse": 3106,
      "shocked": 3107,
      "ordin": 3108,
      "prize": 3109,
      "sudden": 3110,
      "crocod": 3111,
      "ordinary": 3112,
      "pattern": 3113,
      "cupboard": 3114,
      "compassion": 3115,
      "charm": 3116,
      "coo": 3117,
      "pige": 3118,
      "fork": 3119,
      "sadly": 3120,
      "thirsty": 3121,
      "ince": 3122,
      "enve": 3123,
      "thus": 3124,
      "ither": 3125,
      "persist": 3126,
      "host": 3127,
      "stranger": 3128,
      "reading": 3129,
      "doors": 3130,
      "wheels": 3131,
      "œLetâ": 3132,
      "enthus": 3133,
      "discover": 3134,
      "rece": 3135,
      "stack": 3136,
      "early": 3137,
      "numbers": 3138,
      "desk": 3139,
      "wire": 3140,
      "hunter": 3141,
      "Or": 3142,
      "planet": 3143,
      "penny": 3144,
      "ages": 3145,
      "peeked": 3146,
      "butterflies": 3147,
      "cran": 3148,
      "ience": 3149,
      "screen": 3150,
      "io": 3151,
      "spilled": 3152,
      "ief": 3153,
      "bracelet": 3154,
      "return": 3155,
      "torn": 3156,
      "rug": 3157,
      "stops": 3158,
      "given": 3159,
      "comput": 3160,
      "spring": 3161,
      "main": 3162,
      "env": 3163,
      "ahead": 3164,
      "steps": 3165,
      "anx": 3166,
      "sorts": 3167,
      "humble": 3168,
      "flashlight": 3169,
      "spoke": 3170,
      "towers": 3171,
      "warned": 3172,
      "bent": 3173,
      "intell": 3174,
      "intellig": 3175,
      "polish": 3176,
      "pengu": 3177,
      "placed": 3178,
      "reci": 3179,
      "earth": 3180,
      "Al": 3181,
      "pup": 3182,
      "windows": 3183,
      "cheap": 3184,
      "asses": 3185,
      "avo": 3186,
      "super": 3187,
      "aid": 3188,
      "uncomfortable": 3189,
      "mailbox": 3190,
      "travel": 3191,
      "pale": 3192,
      "Yay": 3193,
      "gling": 3194,
      "badly": 3195,
      "anda": 3196,
      "Pat": 3197,
      "anxious": 3198,
      "older": 3199,
      "sunflower": 3200,
      "inde": 3201,
      "Un": 3202,
      "slides": 3203,
      "sses": 3204,
      "biggest": 3205,
      "scale": 3206,
      "growing": 3207,
      "flute": 3208,
      "couldnâ": 3209,
      "statue": 3210,
      "ribb": 3211,
      "counting": 3212,
      "cooking": 3213,
      "celebrate": 3214,
      "remain": 3215,
      "complete": 3216,
      "beetle": 3217,
      "scat": 3218,
      "scoo": 3219,
      "lizard": 3220,
      "value": 3221,
      "coco": 3222,
      "harmless": 3223,
      "sofa": 3224,
      "mole": 3225,
      "pear": 3226,
      "beep": 3227,
      "bull": 3228,
      "beauty": 3229,
      "sity": 3230,
      "tic": 3231,
      "comb": 3232,
      "deaf": 3233,
      "gloom": 3234,
      "shut": 3235,
      "shoot": 3236,
      "nurse": 3237,
      "persistent": 3238,
      "may": 3239,
      "Hen": 3240,
      "cakes": 3241,
      "ctive": 3242,
      "lim": 3243,
      "crocodile": 3244,
      "trick": 3245,
      "crane": 3246,
      "ghost": 3247,
      "track": 3248,
      "gifted": 3249,
      "jumps": 3250,
      "est": 3251,
      "charming": 3252,
      "refused": 3253,
      "cereal": 3254,
      "coll": 3255,
      "names": 3256,
      "yaw": 3257,
      "flour": 3258,
      "iches": 3259,
      "neat": 3260,
      "jet": 3261,
      "raven": 3262,
      "base": 3263,
      "pony": 3264,
      "tur": 3265,
      "curt": 3266,
      "sandwiches": 3267,
      "pretending": 3268,
      "drop": 3269,
      "curtain": 3270,
      "fan": 3271,
      "aches": 3272,
      "snuggled": 3273,
      "chasing": 3274,
      "neighb": 3275,
      "tled": 3276,
      "question": 3277,
      "triang": 3278,
      "envelope": 3279,
      "drawer": 3280,
      "computer": 3281,
      "suppl": 3282,
      "pian": 3283,
      "crawl": 3284,
      "lively": 3285,
      "shroom": 3286,
      "attra": 3287,
      "ffin": 3288,
      "octop": 3289,
      "rules": 3290,
      "cture": 3291,
      "uncle": 3292,
      "intelligent": 3293,
      "gloomy": 3294,
      "carto": 3295,
      "scooter": 3296,
      "speed": 3297,
      "Grace": 3298,
      "piano": 3299,
      "crystal": 3300,
      "collar": 3301,
      "shaking": 3302,
      "package": 3303,
      "helmet": 3304,
      "hurry": 3305,
      "parade": 3306,
      "pho": 3307,
      "bin": 3308,
      "needle": 3309,
      "ubby": 3310,
      "mushroom": 3311,
      "swee": 3312,
      "creatures": 3313,
      "uddy": 3314,
      "photo": 3315,
      "twirled": 3316,
      "rub": 3317,
      "œThat": 3318,
      "jug": 3319,
      "octopus": 3320,
      "Henry": 3321,
      "icycle": 3322,
      "erable": 3323,
      "alert": 3324,
      "cycle": 3325,
      "ceed": 3326,
      "chance": 3327,
      "cli": 3328,
      "thief": 3329,
      "soldier": 3330,
      "miserable": 3331,
      "station": 3332,
      "ener": 3333,
      "stic": 3334,
      "Before": 3335,
      "pepper": 3336,
      "trap": 3337,
      "Brownie": 3338,
      "sailor": 3339,
      "zebra": 3340,
      "five": 3341,
      "az": 3342,
      "disgust": 3343,
      "separ": 3344,
      "fireman": 3345,
      "sheet": 3346,
      "stretched": 3347,
      "tion": 3348,
      "anywhere": 3349,
      "bicycle": 3350,
      "dug": 3351,
      "Charlie": 3352,
      "ignorant": 3353,
      "repe": 3354,
      "Annie": 3355,
      "seal": 3356,
      "skip": 3357,
      "wishes": 3358,
      "bandage": 3359,
      "turkey": 3360,
      "ckets": 3361,
      "helpless": 3362,
      "stickers": 3363,
      "knot": 3364,
      "bounced": 3365,
      "hood": 3366,
      "Mag": 3367,
      "Bun": 3368,
      "radio": 3369,
      "trash": 3370,
      "practiced": 3371,
      "ffle": 3372,
      "belt": 3373,
      "cob": 3374,
      "secon": 3375,
      "leash": 3376,
      "respectful": 3377,
      "Bet": 3378,
      "ador": 3379,
      "Everything": 3380,
      "gie": 3381,
      "impat": 3382,
      "lollipop": 3383,
      "attractive": 3384,
      "letters": 3385,
      "cap": 3386,
      "camp": 3387,
      "por": 3388,
      "stirred": 3389,
      "nobody": 3390,
      "Tweetie": 3391,
      "compassionate": 3392,
      "pasta": 3393,
      "chubby": 3394,
      "ummer": 3395,
      "jeep": 3396,
      "Jerry": 3397,
      "gir": 3398,
      "pigeon": 3399,
      "thread": 3400,
      "trum": 3401,
      "distur": 3402,
      "decorate": 3403,
      "quar": 3404,
      "tire": 3405,
      "listening": 3406,
      "screw": 3407,
      "muffin": 3408,
      "cocoa": 3409,
      "bet": 3410,
      "club": 3411,
      "brighter": 3412,
      "tray": 3413,
      "succeed": 3414,
      "aff": 3415,
      "igator": 3416,
      "impatient": 3417,
      "competitive": 3418,
      "pressed": 3419,
      "ccoli": 3420,
      "otter": 3421,
      "opard": 3422,
      "arian": 3423,
      "scoop": 3424,
      "further": 3425,
      "theart": 3426,
      "tooth": 3427,
      "troubled": 3428,
      "melon": 3429,
      "fis": 3430,
      "itself": 3431,
      "iest": 3432,
      "nuts": 3433,
      "Lilly": 3434,
      "candle": 3435,
      "Sandy": 3436,
      "attic": 3437,
      "Snow": 3438,
      "ost": 3439,
      "vine": 3440,
      "olin": 3441,
      "pun": 3442,
      "starts": 3443,
      "mug": 3444,
      "restless": 3445,
      "glasses": 3446,
      "shoe": 3447,
      "disgusting": 3448,
      "ino": 3449,
      "somewhere": 3450,
      "cards": 3451,
      "carpet": 3452,
      "gor": 3453,
      "knock": 3454,
      "spir": 3455,
      "Did": 3456,
      "Red": 3457,
      "dess": 3458,
      "aur": 3459,
      "adorable": 3460,
      "repair": 3461,
      "waffle": 3462,
      "anyway": 3463,
      "alligator": 3464,
      "mask": 3465,
      "fearful": 3466,
      "Is": 3467,
      "Danny": 3468,
      "leopard": 3469,
      "clu": 3470,
      "shouts": 3471,
      "restaur": 3472,
      "pants": 3473,
      "envious": 3474,
      "meow": 3475,
      "filthy": 3476,
      "aked": 3477,
      "ded": 3478,
      "heli": 3479,
      "copter": 3480,
      "gain": 3481,
      "afternoon": 3482,
      "Cl": 3483,
      "distant": 3484,
      "mission": 3485,
      "tube": 3486,
      "hive": 3487,
      "sweetheart": 3488,
      "iastic": 3489,
      "exper": 3490,
      "cooked": 3491,
      "enthusiastic": 3492,
      "kers": 3493,
      "perform": 3494,
      "gn": 3495,
      "giggle": 3496,
      "hipp": 3497,
      "broccoli": 3498,
      "Lee": 3499,
      "hook": 3500,
      "helicopter": 3501,
      "monkeys": 3502,
      "bri": 3503,
      "aroo": 3504,
      "unk": 3505,
      "angaroo": 3506,
      "harsh": 3507,
      "hall": 3508,
      "complain": 3509,
      "sie": 3510,
      "pipe": 3511,
      "sandbox": 3512,
      "admi": 3513,
      "nowhere": 3514,
      "backpack": 3515,
      "restaurant": 3516,
      "speak": 3517,
      "Baby": 3518,
      "trumpet": 3519,
      "meas": 3520,
      "Maria": 3521,
      "barking": 3522,
      "Bunny": 3523,
      "bathtub": 3524,
      "country": 3525,
      "ath": 3526,
      "quite": 3527,
      "kangaroo": 3528,
      "poem": 3529,
      "aero": 3530,
      "squash": 3531,
      "Millie": 3532,
      "pit": 3533,
      "rice": 3534,
      "Jess": 3535,
      "Whis": 3536,
      "twist": 3537,
      "mama": 3538,
      "cows": 3539,
      "happier": 3540,
      "Mim": 3541,
      "ween": 3542,
      "sle": 3543,
      "bur": 3544,
      "vol": 3545,
      "summer": 3546,
      "admire": 3547,
      "firework": 3548,
      "cush": 3549,
      "Mimi": 3550,
      "stared": 3551,
      "Kate": 3552,
      "message": 3553,
      "didnâ": 3554,
      "cricket": 3555,
      "grabs": 3556,
      "sort": 3557,
      "mule": 3558,
      "ostrich": 3559,
      "pilot": 3560,
      "impro": 3561,
      "human": 3562,
      "spell": 3563,
      "gorilla": 3564,
      "paid": 3565,
      "zi": 3566,
      "modest": 3567,
      "bser": 3568,
      "Harry": 3569,
      "behave": 3570,
      "Papa": 3571,
      "finds": 3572,
      "obser": 3573,
      "meat": 3574,
      "dessert": 3575,
      "castles": 3576,
      "support": 3577,
      "reco": 3578,
      "rolling": 3579,
      "mill": 3580,
      "violin": 3581,
      "Buddy": 3582,
      "hedge": 3583,
      "wever": 3584,
      "These": 3585,
      "sport": 3586,
      "jellyfish": 3587,
      "resc": 3588,
      "rescue": 3589,
      "lk": 3590,
      "pulls": 3591,
      "tripped": 3592,
      "yogurt": 3593,
      "size": 3594,
      "paws": 3595,
      "ucked": 3596,
      "organize": 3597,
      "kne": 3598,
      "holes": 3599,
      "wheat": 3600,
      "hippo": 3601,
      "forgave": 3602,
      "roared": 3603,
      "recogn": 3604,
      "tick": 3605,
      "cats": 3606,
      "Sm": 3607,
      "purse": 3608,
      "Po": 3609,
      "tax": 3610,
      "bikes": 3611,
      "choice": 3612,
      "swinging": 3613,
      "lions": 3614,
      "pushing": 3615,
      "dar": 3616,
      "cact": 3617,
      "object": 3618,
      "salt": 3619,
      "cano": 3620,
      "scold": 3621,
      "split": 3622,
      "shade": 3623,
      "starting": 3624,
      "haircut": 3625,
      "buzz": 3626,
      "Thanks": 3627,
      "oat": 3628,
      "lightning": 3629,
      "triangle": 3630,
      "lands": 3631,
      "ache": 3632,
      "energy": 3633,
      "riding": 3634,
      "teas": 3635,
      "bubble": 3636,
      "Whiskers": 3637,
      "math": 3638,
      "porch": 3639,
      "frowned": 3640,
      "either": 3641,
      "dive": 3642,
      "learnt": 3643,
      "laun": 3644,
      "raft": 3645,
      "pole": 3646,
      "tomato": 3647,
      "trains": 3648,
      "luck": 3649,
      "wallet": 3650,
      "send": 3651,
      "rod": 3652,
      "chalk": 3653,
      "bananas": 3654,
      "panda": 3655,
      "Tony": 3656,
      "evening": 3657,
      "aled": 3658,
      "sticker": 3659,
      "ris": 3660,
      "volcano": 3661,
      "papers": 3662,
      "sweater": 3663,
      "seum": 3664,
      "museum": 3665,
      "inking": 3666,
      "appreci": 3667,
      "palace": 3668,
      "strawberry": 3669,
      "taxi": 3670,
      "bears": 3671,
      "boots": 3672,
      "jokes": 3673,
      "inse": 3674,
      "bby": 3675,
      "comet": 3676,
      "shakes": 3677,
      "neighbour": 3678,
      "fee": 3679,
      "shopkeeper": 3680,
      "barrel": 3681,
      "spirit": 3682,
      "hadn": 3683,
      "James": 3684,
      "fac": 3685,
      "silver": 3686,
      "offee": 3687,
      "alive": 3688,
      "reinde": 3689,
      "smells": 3690,
      "steak": 3691,
      "œYou": 3692,
      "resp": 3693,
      "laundry": 3694,
      "goal": 3695,
      "sock": 3696,
      "cactus": 3697,
      "iron": 3698,
      "avoc": 3699,
      "shield": 3700,
      "astic": 3701,
      "iling": 3702,
      "mild": 3703,
      "troph": 3704,
      "microphone": 3705,
      "putting": 3706,
      "softly": 3707,
      "visited": 3708,
      "pushes": 3709,
      "notebook": 3710,
      "cel": 3711,
      "resist": 3712,
      "tricks": 3713,
      "clapping": 3714,
      "magnet": 3715,
      "judge": 3716,
      "chan": 3717,
      "drawings": 3718,
      "falling": 3719,
      "colours": 3720,
      "shovel": 3721,
      "leaned": 3722,
      "motorcycle": 3723,
      "zoomed": 3724,
      "edy": 3725,
      "shel": 3726,
      "trem": 3727,
      "checked": 3728,
      "planes": 3729,
      "oy": 3730,
      "comfort": 3731,
      "bulance": 3732,
      "awe": 3733,
      "une": 3734,
      "gro": 3735,
      "belongs": 3736,
      "ambulance": 3737,
      "penguin": 3738,
      "Flo": 3739,
      "airport": 3740,
      "sprink": 3741,
      "climbing": 3742,
      "web": 3743,
      "bol": 3744,
      "quarrel": 3745,
      "Maggie": 3746,
      "marched": 3747,
      "Kat": 3748,
      "shelter": 3749,
      "avail": 3750,
      "pebble": 3751,
      "counter": 3752,
      "reindeer": 3753,
      "sau": 3754,
      "mas": 3755,
      "donâ": 3756,
      "aeroplane": 3757,
      "dishes": 3758,
      "fields": 3759,
      "Tr": 3760,
      "vator": 3761,
      "grapes": 3762,
      "barks": 3763,
      "elevator": 3764,
      "peek": 3765,
      "coffee": 3766,
      "apologized": 3767,
      "yach": 3768,
      "trophy": 3769,
      "skill": 3770,
      "raining": 3771,
      "appl": 3772,
      "stume": 3773,
      "soil": 3774,
      "costume": 3775,
      "scope": 3776,
      "danger": 3777,
      "hoping": 3778,
      "beam": 3779,
      "poke": 3780,
      "marry": 3781,
      "rubber": 3782,
      "vroom": 3783,
      "available": 3784,
      "feelings": 3785,
      "drops": 3786,
      "medal": 3787,
      "unhappy": 3788,
      "task": 3789,
      "vend": 3790,
      "chain": 3791,
      "Miss": 3792,
      "thanks": 3793,
      "enter": 3794,
      "Su": 3795,
      "film": 3796,
      "minute": 3797,
      "shrimp": 3798,
      "chanic": 3799,
      "kitty": 3800,
      "€“": 3801,
      "unlock": 3802,
      "comm": 3803,
      "loop": 3804,
      "rhino": 3805,
      "journ": 3806,
      "wool": 3807,
      "fisher": 3808,
      "inclu": 3809,
      "celery": 3810,
      "shouldn": 3811,
      "onion": 3812,
      "yacht": 3813,
      "eraser": 3814,
      "perfectly": 3815,
      "mechanic": 3816,
      "page": 3817,
      "imagine": 3818,
      "winter": 3819,
      "bbles": 3820,
      "May": 3821,
      "Clara": 3822,
      "diary": 3823,
      "closely": 3824,
      "ait": 3825,
      "magaz": 3826,
      "cardboard": 3827,
      "basketball": 3828,
      "player": 3829,
      "Smith": 3830,
      "journal": 3831,
      "eagerly": 3832,
      "ense": 3833,
      "baking": 3834,
      "tap": 3835,
      "iture": 3836,
      "urniture": 3837,
      "quit": 3838,
      "pted": 3839,
      "bey": 3840,
      "ction": 3841,
      "glove": 3842,
      "hut": 3843,
      "vendor": 3844,
      "fog": 3845,
      "treasures": 3846,
      "stuffed": 3847,
      "furniture": 3848,
      "poss": 3849,
      "headed": 3850,
      "pine": 3851,
      "urch": 3852,
      "imagination": 3853,
      "freez": 3854,
      "Sp": 3855,
      "breaks": 3856,
      "squi": 3857,
      "skull": 3858,
      "church": 3859,
      "wife": 3860,
      "nder": 3861,
      "nament": 3862,
      "cooler": 3863,
      "frogs": 3864,
      "prune": 3865,
      "switch": 3866,
      "cups": 3867,
      "second": 3868,
      "Instead": 3869,
      "sym": 3870,
      "between": 3871,
      "offer": 3872,
      "chor": 3873,
      "cheek": 3874,
      "petal": 3875,
      "uli": 3876,
      "ides": 3877,
      "factory": 3878,
      "swung": 3879,
      "mosqui": 3880,
      "affe": 3881,
      "football": 3882,
      "reeze": 3883,
      "oe": 3884,
      "shouting": 3885,
      "flame": 3886,
      "hotel": 3887,
      "mm": 3888,
      "blowing": 3889,
      "God": 3890,
      "twink": 3891,
      "died": 3892,
      "ox": 3893,
      "kele": 3894,
      "cauli": 3895,
      "attent": 3896,
      "golf": 3897,
      "Because": 3898,
      "tear": 3899,
      "keleton": 3900,
      "Iâ": 3901,
      "peach": 3902,
      "seeing": 3903,
      "disappear": 3904,
      "coal": 3905,
      "..": 3906,
      "painter": 3907,
      "video": 3908,
      "stamp": 3909,
      "heads": 3910,
      "Wait": 3911,
      "ornament": 3912,
      "crash": 3913,
      "ccer": 3914,
      "breathe": 3915,
      "folder": 3916,
      "pirates": 3917,
      "oil": 3918,
      "cushion": 3919,
      "created": 3920,
      "frame": 3921,
      "izes": 3922,
      "buck": 3923,
      "mixer": 3924,
      "throws": 3925,
      "First": 3926,
      "crow": 3927,
      "powder": 3928,
      "potato": 3929,
      "fisherman": 3930,
      "azz": 3931,
      "weigh": 3932,
      "zzy": 3933,
      "angu": 3934,
      "soccer": 3935,
      "Ste": 3936,
      "True": 3937,
      "symbol": 3938,
      "sunset": 3939,
      "parent": 3940,
      "Car": 3941,
      "popped": 3942,
      "cauliflower": 3943,
      "umber": 3944,
      "cable": 3945,
      "skeleton": 3946,
      "battery": 3947,
      "langu": 3948,
      "wipe": 3949,
      "attention": 3950,
      "horses": 3951,
      "forgotten": 3952,
      "laser": 3953,
      "weather": 3954,
      "Have": 3955,
      "enny": 3956,
      "celebrated": 3957,
      "slept": 3958,
      "itâ": 3959,
      "Rosie": 3960,
      "trail": 3961,
      "since": 3962,
      "fishing": 3963,
      "surround": 3964,
      "maze": 3965,
      "knob": 3966,
      "ceros": 3967,
      "yoga": 3968,
      "waving": 3969,
      "shoo": 3970,
      "anchor": 3971,
      "tip": 3972,
      "dear": 3973,
      "sneak": 3974,
      "giraffe": 3975,
      "trod": 3976,
      "pas": 3977,
      "lend": 3978,
      "chirp": 3979,
      "introd": 3980,
      "unpack": 3981,
      "Tina": 3982,
      "points": 3983,
      "sla": 3984,
      "point": 3985,
      "flea": 3986,
      "breeze": 3987,
      "glowing": 3988,
      "swamp": 3989,
      "tutor": 3990,
      "fireplace": 3991,
      "ckey": 3992,
      "sunglasses": 3993,
      "medi": 3994,
      "rhinoceros": 3995,
      "bulb": 3996,
      "sub": 3997,
      "kingdom": 3998,
      "memories": 3999,
      "mop": 4000,
      "axe": 4001,
      "ding": 4002,
      "streng": 4003,
      "reve": 4004,
      "tuna": 4005,
      "petals": 4006,
      "capt": 4007,
      "mistakes": 4008,
      "ceiling": 4009,
      "dancer": 4010,
      "aking": 4011,
      "chickens": 4012,
      "greedy": 4013,
      "strength": 4014,
      "cuss": 4015,
      "igloo": 4016,
      "hockey": 4017,
      "squirrels": 4018,
      "grin": 4019,
      "sir": 4020,
      "superhero": 4021,
      "ws": 4022,
      "hanging": 4023,
      "experience": 4024,
      "golden": 4025,
      "argue": 4026,
      "sniffed": 4027,
      "kis": 4028,
      "eaten": 4029,
      "grocer": 4030,
      "napkin": 4031,
      "musician": 4032,
      "staff": 4033,
      "tress": 4034,
      "trave": 4035,
      "temple": 4036,
      "sting": 4037,
      "bury": 4038,
      "tol": 4039,
      "Qu": 4040,
      "discuss": 4041,
      "skirt": 4042,
      "Wel": 4043,
      "Welcome": 4044,
      "mediately": 4045,
      "baseball": 4046,
      "uniform": 4047,
      "theater": 4048,
      "meeting": 4049,
      "comed": 4050,
      "microscope": 4051,
      "cared": 4052,
      "istol": 4053,
      "slipper": 4054,
      "zipper": 4055,
      "short": 4056,
      "welcomed": 4057,
      "shoulder": 4058,
      "invest": 4059,
      "quietly": 4060,
      "cell": 4061,
      "pinch": 4062,
      "lime": 4063,
      "pistol": 4064,
      "surre": 4065,
      "possible": 4066,
      "moves": 4067,
      "warning": 4068,
      "flapped": 4069,
      "investig": 4070,
      "miner": 4071,
      "slippery": 4072,
      "fought": 4073,
      "throwing": 4074,
      "radish": 4075,
      "accepted": 4076,
      "washer": 4077,
      "bouncing": 4078,
      "erc": 4079,
      "plastic": 4080,
      "calls": 4081,
      "sticky": 4082,
      "creek": 4083,
      "writing": 4084,
      "coats": 4085,
      "kayak": 4086,
      "novel": 4087,
      "freezer": 4088,
      "chim": 4089,
      "lawy": 4090,
      "armchair": 4091,
      "avocado": 4092,
      "oking": 4093,
      "lotion": 4094,
      "accept": 4095,
      "fauce": 4096,
      "reef": 4097,
      "ison": 4098,
      "suff": 4099,
      "oyster": 4100,
      "makeup": 4101,
      "rake": 4102,
      "mystery": 4103,
      "investigate": 4104,
      "sailing": 4105,
      "quack": 4106,
      "regre": 4107,
      "tug": 4108,
      "Zoe": 4109,
      "exerc": 4110,
      "cherries": 4111,
      "crib": 4112,
      "ilet": 4113,
      "presents": 4114,
      "mattress": 4115,
      "worth": 4116,
      "faucet": 4117,
      "splashing": 4118,
      "applau": 4119,
      "ticket": 4120,
      "collected": 4121,
      "dressed": 4122,
      "prevent": 4123,
      "sprayed": 4124,
      "toilet": 4125,
      "inked": 4126,
      "iv": 4127,
      "Freddy": 4128,
      "magazine": 4129,
      "wags": 4130,
      "happens": 4131,
      "dishwasher": 4132,
      "entered": 4133,
      "œItâ": 4134,
      "rush": 4135,
      "veil": 4136,
      "appro": 4137,
      "separate": 4138,
      "scolded": 4139,
      "shrugged": 4140,
      "mosquito": 4141,
      "chess": 4142,
      "fant": 4143,
      "yield": 4144,
      "cabinet": 4145,
      "sigh": 4146,
      "alarm": 4147,
      "argu": 4148,
      "regret": 4149,
      "blankets": 4150,
      "tucked": 4151,
      "burned": 4152,
      "ignored": 4153,
      "lawyer": 4154,
      "chimney": 4155,
      "Sad": 4156,
      "display": 4157,
      "attach": 4158,
      "si": 4159,
      "classroom": 4160,
      "kisses": 4161,
      "candles": 4162,
      "Milly": 4163,
      "puddles": 4164,
      "hopes": 4165,
      "keeping": 4166,
      "follows": 4167,
      "easily": 4168,
      "beef": 4169,
      "apart": 4170,
      "bathe": 4171,
      "chairs": 4172,
      "ival": 4173,
      "omed": 4174,
      "bother": 4175,
      "raz": 4176,
      "fortun": 4177,
      "sna": 4178,
      "straight": 4179,
      "terin": 4180,
      "letting": 4181,
      "bang": 4182,
      "veterin": 4183,
      "vision": 4184,
      "veterinarian": 4185,
      "poo": 4186,
      "trusted": 4187,
      "stable": 4188,
      "razor": 4189,
      "model": 4190,
      "caring": 4191,
      "sizes": 4192,
      "Sun": 4193,
      "language": 4194,
      "snap": 4195,
      "slice": 4196,
      "blinked": 4197,
      "wardrobe": 4198,
      "jewelry": 4199,
      "Ruby": 4200,
      "rooms": 4201,
      "apr": 4202,
      "una": 4203,
      "shower": 4204,
      "oak": 4205,
      "However": 4206,
      "opera": 4207,
      "missile": 4208,
      "atched": 4209,
      "couraged": 4210,
      "crossed": 4211,
      "lawn": 4212,
      "newspaper": 4213,
      "incre": 4214,
      "telephone": 4215,
      "trade": 4216,
      "claws": 4217,
      "lab": 4218,
      "puzzles": 4219,
      "blouse": 4220,
      "label": 4221,
      "hon": 4222,
      "scratch": 4223,
      "tornado": 4224,
      "bookcase": 4225,
      "llen": 4226,
      "ups": 4227,
      "kneel": 4228,
      "ement": 4229,
      "amazement": 4230,
      "blueberries": 4231,
      "recomm": 4232,
      "People": 4233,
      "ctions": 4234,
      "delay": 4235,
      "squeezed": 4236,
      "bookshelf": 4237,
      "ah": 4238,
      "cts": 4239,
      "ady": 4240,
      "valley": 4241,
      "ga": 4242,
      "dent": 4243,
      "subway": 4244,
      "gym": 4245,
      "grill": 4246,
      "request": 4247,
      "Snowy": 4248,
      "steam": 4249,
      "dic": 4250,
      "Co": 4251,
      "television": 4252,
      "mint": 4253,
      "crawling": 4254,
      "fume": 4255,
      "shrink": 4256,
      "Ex": 4257,
      "poked": 4258,
      "serve": 4259,
      "spear": 4260,
      "€.": 4261,
      "padd": 4262,
      "ason": 4263,
      "following": 4264,
      "Not": 4265,
      "dem": 4266,
      "squeeze": 4267,
      "file": 4268,
      "sham": 4269,
      "fortunately": 4270,
      "float": 4271,
      "improve": 4272,
      "licks": 4273,
      "ms": 4274,
      "lumber": 4275,
      "holid": 4276,
      "holiday": 4277,
      "demand": 4278,
      "ringing": 4279,
      "diction": 4280,
      "drain": 4281,
      "Happ": 4282,
      "nore": 4283,
      "cliff": 4284,
      "prepar": 4285,
      "shampoo": 4286,
      "perfume": 4287,
      "lier": 4288,
      "ribbon": 4289,
      "dictionary": 4290,
      "immediately": 4291,
      "helper": 4292,
      "fest": 4293,
      "recei": 4294,
      "melt": 4295,
      "Ol": 4296,
      "growled": 4297,
      "Katie": 4298,
      "waste": 4299,
      "isn": 4300,
      "begged": 4301,
      "lic": 4302,
      "matches": 4303,
      "bill": 4304,
      "decis": 4305,
      "Sha": 4306,
      "blood": 4307,
      "warmth": 4308,
      "mustache": 4309,
      "ideas": 4310,
      "hic": 4311,
      "fuel": 4312,
      "sneeze": 4313,
      "rail": 4314,
      "invite": 4315,
      "Luck": 4316,
      "umb": 4317,
      "vehic": 4318,
      "Liz": 4319,
      "rabbits": 4320,
      "yucky": 4321,
      "alright": 4322,
      "birdcage": 4323,
      "weep": 4324,
      "gear": 4325,
      "married": 4326,
      "Ollie": 4327,
      "Each": 4328,
      "pected": 4329,
      "Luckily": 4330,
      "fallen": 4331,
      "ase": 4332,
      "worms": 4333,
      "Ok": 4334,
      "calend": 4335,
      "reverse": 4336,
      "bbie": 4337,
      "Rac": 4338,
      "festival": 4339,
      "mist": 4340,
      "vac": 4341,
      "laught": 4342,
      "pastry": 4343,
      "auto": 4344,
      "understanding": 4345,
      "bravely": 4346,
      "below": 4347,
      "structure": 4348,
      "wandered": 4349,
      "surprises": 4350,
      "mob": 4351,
      "asis": 4352,
      "pages": 4353,
      "laughter": 4354,
      "hurting": 4355,
      "dire": 4356,
      "œNo": 4357,
      "King": 4358,
      "oasis": 4359,
      "calendar": 4360,
      "whip": 4361,
      "omeday": 4362,
      "hearts": 4363,
      "inky": 4364,
      "cus": 4365,
      "anna": 4366,
      "surf": 4367,
      "buckle": 4368,
      "buried": 4369,
      "safety": 4370,
      "Happy": 4371,
      "apron": 4372,
      "reaches": 4373,
      "captain": 4374,
      "automob": 4375,
      "admir": 4376,
      "Rachel": 4377,
      "junk": 4378,
      "strawberries": 4379,
      "relaxed": 4380,
      "Steve": 4381,
      "ignore": 4382,
      "myself": 4383,
      "sandcastle": 4384,
      "htray": 4385,
      "skills": 4386,
      "Joy": 4387,
      "plates": 4388,
      "invit": 4389,
      "pastel": 4390,
      "ashtray": 4391,
      "root": 4392,
      "moments": 4393,
      "spade": 4394,
      "Betsy": 4395,
      "Buzz": 4396,
      "gers": 4397,
      "quiz": 4398,
      "Poppy": 4399,
      "raise": 4400,
      "uggling": 4401,
      "Its": 4402,
      "'.": 4403,
      "friger": 4404,
      "saving": 4405,
      "frigerator": 4406,
      "beamed": 4407,
      "snapped": 4408,
      "refrigerator": 4409,
      "wag": 4410,
      "Everyday": 4411,
      "bathrobe": 4412,
      "someday": 4413,
      "received": 4414,
      "offic": 4415,
      "icing": 4416,
      "Yuck": 4417,
      "earlier": 4418,
      "weap": 4419,
      "compl": 4420,
      "harbor": 4421,
      "teaching": 4422,
      "whist": 4423,
      "oper": 4424,
      "Penny": 4425,
      "vanished": 4426,
      "insisted": 4427,
      "sparkling": 4428,
      "spots": 4429,
      "supply": 4430,
      "bumped": 4431,
      "socks": 4432,
      "perfor": 4433,
      "surrender": 4434,
      "Abig": 4435,
      "Frank": 4436,
      "Someone": 4437,
      "dried": 4438,
      "Ready": 4439,
      "blackboard": 4440,
      "jail": 4441,
      "prepare": 4442,
      "jewels": 4443,
      "Je": 4444,
      "insect": 4445,
      "Abigail": 4446,
      "nce": 4447,
      "spending": 4448,
      "settled": 4449,
      "scattered": 4450,
      "Dav": 4451,
      "sparkle": 4452,
      "scooped": 4453,
      "permission": 4454,
      "yawned": 4455,
      "boot": 4456,
      "replace": 4457,
      "destroyed": 4458,
      "achie": 4459,
      "chy": 4460,
      "tease": 4461,
      "mbers": 4462,
      "balanc": 4463,
      "hardly": 4464,
      "beans": 4465,
      "solved": 4466,
      "antly": 4467,
      "dare": 4468,
      "encouraged": 4469,
      "disturb": 4470,
      "remove": 4471,
      "sters": 4472,
      "lemonade": 4473,
      "decorations": 4474,
      "shot": 4475,
      "pride": 4476,
      "pulling": 4477,
      "hanger": 4478,
      "sits": 4479,
      "hate": 4480,
      "conf": 4481,
      "izard": 4482,
      "cuddled": 4483,
      "respons": 4484,
      "tore": 4485,
      "vor": 4486,
      "David": 4487,
      "dresses": 4488,
      "license": 4489,
      "daisy": 4490,
      "ggy": 4491,
      "members": 4492,
      "punish": 4493,
      "chirping": 4494,
      "praised": 4495,
      "suffer": 4496,
      "Mmm": 4497,
      "hits": 4498,
      "patiently": 4499,
      "buzzing": 4500,
      "dam": 4501,
      "mention": 4502,
      "fastest": 4503,
      "billboard": 4504,
      "equ": 4505,
      "wine": 4506,
      "Ma": 4507,
      "Goodbye": 4508,
      "rhy": 4509,
      "cartoon": 4510,
      "wizard": 4511,
      "nies": 4512,
      "nation": 4513,
      "bleed": 4514,
      "wigg": 4515,
      "appreciate": 4516,
      "destination": 4517,
      "taller": 4518,
      "mall": 4519,
      "poppy": 4520,
      "crun": 4521,
      "automobile": 4522,
      "digg": 4523,
      "tour": 4524,
      "Cat": 4525,
      "bling": 4526,
      "ium": 4527,
      "hers": 4528,
      "washing": 4529,
      "none": 4530,
      "climbs": 4531,
      "nie": 4532,
      "believed": 4533,
      "bab": 4534,
      "passport": 4535,
      "restore": 4536,
      "vy": 4537,
      "obey": 4538,
      "digging": 4539,
      "hesit": 4540,
      "approached": 4541,
      "fied": 4542,
      "deeper": 4543,
      "score": 4544,
      "homes": 4545,
      "proper": 4546,
      "chamber": 4547,
      "mitten": 4548,
      "heat": 4549,
      "cobweb": 4550,
      "poison": 4551,
      "struggling": 4552,
      "Ha": 4553,
      "difference": 4554,
      "sausage": 4555,
      "infant": 4556,
      "pillows": 4557,
      "hills": 4558,
      "hurri": 4559,
      "tongue": 4560,
      "Spike": 4561,
      "sneezed": 4562,
      "brain": 4563,
      "provide": 4564,
      "thrilled": 4565,
      "panic": 4566,
      "upstairs": 4567,
      "twisted": 4568,
      "universe": 4569,
      "repeat": 4570,
      "setting": 4571,
      "glowed": 4572,
      "vacation": 4573,
      "parts": 4574,
      "cin": 4575,
      "worse": 4576,
      "versity": 4577,
      "ometer": 4578,
      "event": 4579,
      "airplane": 4580,
      "Exc": 4581,
      "comp": 4582,
      "ues": 4583,
      "examine": 4584,
      "ranch": 4585,
      "folded": 4586,
      "ef": 4587,
      "plays": 4588,
      "hurricane": 4589,
      "sparkles": 4590,
      "remained": 4591,
      "mometer": 4592,
      "neighborhood": 4593,
      "contain": 4594,
      "shooting": 4595,
      "floated": 4596,
      "thermometer": 4597,
      "university": 4598,
      "orang": 4599,
      "chores": 4600,
      "oranges": 4601,
      "weeks": 4602,
      "leak": 4603,
      "oh": 4604,
      "lets": 4605,
      "bites": 4606,
      "paints": 4607,
      "Ouch": 4608,
      "sip": 4609,
      "talent": 4610,
      "wre": 4611,
      "adium": 4612,
      "girls": 4613,
      "floating": 4614,
      "measured": 4615,
      "fixing": 4616,
      "Cla": 4617,
      "ipping": 4618,
      "osed": 4619,
      "stadium": 4620,
      "supposed": 4621,
      "during": 4622,
      "grinned": 4623,
      "surrounded": 4624,
      "!\",": 4625,
      "rhyth": 4626,
      "!'": 4627,
      "paused": 4628,
      "thumb": 4629,
      "toe": 4630,
      "Unfortunately": 4631,
      "chip": 4632,
      "brings": 4633,
      "cherry": 4634,
      "massage": 4635,
      "gifts": 4636,
      "fut": 4637,
      "lia": 4638,
      "scatter": 4639,
      "tch": 4640,
      "fas": 4641,
      "signs": 4642,
      "future": 4643,
      "disco": 4644,
      "marbles": 4645,
      "lick": 4646,
      "sprinkles": 4647,
      "jazz": 4648,
      "collection": 4649,
      "teaspo": 4650,
      "bun": 4651,
      "grey": 4652,
      "memory": 4653,
      "œIâ": 4654,
      "bbled": 4655,
      "wisdom": 4656,
      "flood": 4657,
      "Fro": 4658,
      "Remember": 4659,
      "discovery": 4660,
      "perm": 4661,
      "actually": 4662,
      "vehicle": 4663,
      "unite": 4664,
      "lily": 4665,
      "tide": 4666,
      "uses": 4667,
      "sunrise": 4668,
      "uggle": 4669,
      "Like": 4670,
      "meowed": 4671,
      "stomach": 4672,
      "palm": 4673,
      "owned": 4674,
      "elephants": 4675,
      "fy": 4676,
      "Mor": 4677,
      "exercise": 4678,
      "rang": 4679,
      "urge": 4680,
      "œThatâ": 4681,
      "chewed": 4682,
      "zag": 4683,
      "Jam": 4684,
      "Mic": 4685,
      "lugg": 4686,
      "mailman": 4687,
      "weapon": 4688,
      "decision": 4689,
      "observe": 4690,
      "sore": 4691,
      "luggage": 4692,
      "Zoom": 4693,
      "Jan": 4694,
      "zipped": 4695,
      "fascin": 4696,
      "muscle": 4697,
      "curled": 4698,
      "scur": 4699,
      "oxy": 4700,
      "cartoons": 4701,
      "lest": 4702,
      "Remy": 4703,
      "Ke": 4704,
      "tomatoes": 4705,
      "Spark": 4706,
      "grape": 4707,
      "melted": 4708,
      "collecting": 4709,
      "sunlight": 4710,
      "For": 4711,
      "chirped": 4712,
      "iers": 4713,
      "wed": 4714,
      "spill": 4715,
      "py": 4716,
      "ities": 4717,
      "mineral": 4718,
      "Luna": 4719,
      "teaspoon": 4720,
      "Sharing": 4721,
      "jogging": 4722,
      "rhythm": 4723,
      "tracks": 4724,
      "problems": 4725,
      "Nina": 4726,
      "wherever": 4727,
      "safar": 4728,
      "manage": 4729,
      "bak": 4730,
      "Thom": 4731,
      "beat": 4732,
      "mountains": 4733,
      "sliding": 4734,
      "lip": 4735,
      "receive": 4736,
      "laid": 4737,
      "satis": 4738,
      "watered": 4739,
      "growl": 4740,
      "ipment": 4741,
      "agreement": 4742,
      "price": 4743,
      "admiring": 4744,
      "equipment": 4745,
      "potatoes": 4746,
      "unic": 4747,
      "skipping": 4748,
      "emer": 4749,
      "sed": 4750,
      "petted": 4751,
      "patterns": 4752,
      "twigs": 4753,
      "kindly": 4754,
      "Uncle": 4755,
      "nes": 4756,
      "seats": 4757,
      "soldiers": 4758,
      "bricks": 4759,
      "gloves": 4760,
      "joyed": 4761,
      "quake": 4762,
      "continue": 4763,
      "Thomas": 4764,
      "Sh": 4765,
      "copper": 4766,
      "strangers": 4767,
      "ordered": 4768,
      "rum": 4769,
      "Lu": 4770,
      "gotten": 4771,
      "overjoyed": 4772,
      "whistling": 4773,
      "flavor": 4774,
      "watches": 4775,
      "pigs": 4776,
      "pets": 4777,
      "beside": 4778,
      "safari": 4779,
      "Beth": 4780,
      "ddy": 4781,
      "prayed": 4782,
      "œThank": 4783,
      "operation": 4784,
      "peered": 4785,
      "stam": 4786,
      "network": 4787,
      "Sunny": 4788,
      "Gre": 4789,
      "Suzy": 4790,
      "Chlo": 4791,
      "weight": 4792,
      "famil": 4793,
      "ric": 4794,
      "Josh": 4795,
      "marching": 4796,
      "invitation": 4797,
      "Moral": 4798,
      "lips": 4799,
      "earthquake": 4800,
      "glitter": 4801,
      "Julie": 4802,
      "eagle": 4803,
      "igzag": 4804,
      "acorns": 4805,
      "doggy": 4806,
      "wooden": 4807,
      "drinks": 4808,
      "beg": 4809,
      "company": 4810,
      "disagreed": 4811,
      "attached": 4812,
      "weren": 4813,
      "grocery": 4814,
      "navy": 4815,
      "works": 4816,
      "raised": 4817,
      "Yum": 4818,
      "orts": 4819,
      "sidewalk": 4820,
      "esca": 4821,
      "spike": 4822,
      "Chloe": 4823,
      "rested": 4824,
      "ffic": 4825,
      "\",": 4826,
      "mister": 4827,
      "onwards": 4828,
      "Kay": 4829,
      "burning": 4830,
      "happiest": 4831,
      "Chir": 4832,
      "racing": 4833,
      "rust": 4834,
      "spoons": 4835,
      "brid": 4836,
      "crashed": 4837,
      "beha": 4838,
      "crunchy": 4839,
      "peanuts": 4840,
      "Really": 4841,
      "Donâ": 4842,
      "whistled": 4843,
      "hurried": 4844,
      "pies": 4845,
      "brick": 4846,
      "Nut": 4847,
      "freshed": 4848,
      "history": 4849,
      "prepared": 4850,
      "officer": 4851,
      "refreshed": 4852,
      "scratched": 4853,
      "clearing": 4854,
      "fireworks": 4855,
      "exact": 4856,
      "bowed": 4857,
      "Itâ": 4858,
      "lu": 4859,
      "œWe": 4860,
      "escaped": 4861,
      "remembers": 4862,
      "planted": 4863,
      "comfy": 4864,
      "menu": 4865,
      "easier": 4866,
      "dinosaurs": 4867,
      "bridges": 4868,
      "By": 4869,
      "buildings": 4870,
      "turning": 4871,
      "revealed": 4872,
      "Jamie": 4873,
      "hated": 4874,
      "olive": 4875,
      "screams": 4876,
      "brand": 4877,
      "Ye": 4878,
      "selling": 4879,
      "accompl": 4880,
      "recognized": 4881,
      "crept": 4882,
      "challen": 4883,
      "chat": 4884,
      "precious": 4885,
      "rained": 4886,
      "Sadly": 4887,
      "bones": 4888,
      "muddy": 4889,
      "rr": 4890,
      "drinking": 4891,
      "settle": 4892,
      "ends": 4893,
      "nails": 4894,
      "iggling": 4895,
      "pupp": 4896,
      "Coco": 4897,
      "sings": 4898,
      "style": 4899,
      "waits": 4900,
      "beds": 4901,
      "simp": 4902,
      "stom": 4903,
      "osity": 4904,
      "Something": 4905,
      "fash": 4906,
      "herb": 4907,
      "slip": 4908,
      "solut": 4909,
      "reminder": 4910,
      "served": 4911,
      "measuring": 4912,
      "lecture": 4913,
      "Sunday": 4914,
      "spaceship": 4915,
      "perched": 4916,
      "pops": 4917,
      "Hop": 4918,
      "vic": 4919,
      "Big": 4920,
      "shadows": 4921,
      "responsible": 4922,
      "wonders": 4923,
      "voices": 4924,
      "zing": 4925,
      "œCan": 4926,
      "pedal": 4927,
      "pitch": 4928,
      "everyday": 4929,
      "cuddle": 4930,
      "bene": 4931,
      "comforted": 4932,
      "circus": 4933,
      "soared": 4934,
      "anytime": 4935,
      "swo": 4936,
      "zigzag": 4937,
      "succeeded": 4938,
      "aren": 4939,
      "cutting": 4940,
      "freeze": 4941,
      "whatever": 4942,
      "trapped": 4943,
      "tastes": 4944,
      "secrets": 4945,
      "Mo": 4946,
      "shopping": 4947,
      "peel": 4948,
      "villag": 4949,
      "sages": 4950,
      "disturbed": 4951,
      "landscape": 4952,
      "apologize": 4953,
      "velvet": 4954,
      "Rab": 4955,
      "Anne": 4956,
      "printer": 4957,
      "fashion": 4958,
      "traffic": 4959,
      "Hanna": 4960,
      "bringing": 4961,
      "items": 4962,
      "yawn": 4963,
      "drag": 4964,
      "oats": 4965,
      "steel": 4966,
      "practicing": 4967,
      "loaded": 4968,
      "writ": 4969,
      "exactly": 4970,
      "lap": 4971,
      "ising": 4972,
      "rescu": 4973,
      "prints": 4974,
      "visiting": 4975,
      "Lucky": 4976,
      "olives": 4977,
      "simple": 4978,
      "sisters": 4979,
      "activ": 4980,
      "stumes": 4981,
      "six": 4982,
      "costumes": 4983,
      "rul": 4984,
      "answers": 4985,
      "izing": 4986,
      "soak": 4987,
      "brushed": 4988,
      "mouths": 4989,
      "Claire": 4990,
      "Fol": 4991,
      "ishes": 4992,
      "breaking": 4993,
      "Follow": 4994,
      "curiosity": 4995,
      "neath": 4996,
      "mare": 4997,
      "catching": 4998,
      "ky": 4999,
      "image": 5000,
      "encourage": 5001,
      "waist": 5002,
      "beneath": 5003,
      "fascinated": 5004,
      "oxygen": 5005,
      "knel": 5006,
      "aded": 5007,
      "Rabbit": 5008,
      "grandmother": 5009,
      "knelt": 5010,
      "unicorn": 5011,
      "waffles": 5012,
      "underground": 5013,
      "villagers": 5014,
      "leather": 5015,
      "tune": 5016,
      "sadness": 5017,
      "sterday": 5018,
      "rele": 5019,
      "hoo": 5020,
      "Watch": 5021,
      "unlocked": 5022,
      "recognize": 5023,
      "Nutty": 5024,
      "Always": 5025,
      "downstairs": 5026,
      "ena": 5027,
      "creation": 5028,
      "tremble": 5029,
      "Those": 5030,
      "recommend": 5031,
      "Floppy": 5032,
      "heel": 5033,
      "nightmare": 5034,
      "inda": 5035,
      "rs": 5036,
      "jogged": 5037,
      "chef": 5038,
      "monsters": 5039,
      "eats": 5040,
      "pupil": 5041,
      "bank": 5042,
      "Tiny": 5043,
      "caut": 5044,
      "iggy": 5045,
      "wanting": 5046,
      "doctors": 5047,
      "lung": 5048,
      "soaring": 5049,
      "stripes": 5050,
      "ripped": 5051,
      "Lul": 5052,
      "Betty": 5053,
      "blueberry": 5054,
      "instru": 5055,
      "struggled": 5056,
      "gained": 5057,
      "stro": 5058,
      "Jessie": 5059,
      "wondering": 5060,
      "punished": 5061,
      "bleeding": 5062,
      "fetch": 5063,
      "lemons": 5064,
      "wreck": 5065,
      "planned": 5066,
      "Tilly": 5067,
      "nicer": 5068,
      "Adam": 5069,
      "herbs": 5070,
      "guessed": 5071,
      "stealing": 5072,
      "examined": 5073,
      "situ": 5074,
      "Quack": 5075,
      "area": 5076,
      "machines": 5077,
      "argued": 5078,
      "stirring": 5079,
      "inch": 5080,
      "piles": 5081,
      "challenge": 5082,
      "printed": 5083,
      "Hannah": 5084,
      "victory": 5085,
      "united": 5086,
      "Aunt": 5087,
      "firemen": 5088,
      "studied": 5089,
      "wagging": 5090,
      "Pip": 5091,
      "bare": 5092,
      "zooming": 5093,
      "tugged": 5094,
      "west": 5095,
      "introduc": 5096,
      "accidents": 5097,
      "winning": 5098,
      "satisfied": 5099,
      "Leave": 5100,
      "wink": 5101,
      "increase": 5102,
      "exit": 5103,
      "properly": 5104,
      "bunnies": 5105,
      "Pr": 5106,
      "deser": 5107,
      "Chirpy": 5108,
      "shivering": 5109,
      "sniff": 5110,
      "Lulu": 5111,
      "gathering": 5112,
      "fer": 5113,
      "mice": 5114,
      "choo": 5115,
      "uct": 5116,
      "letâ": 5117,
      "wid": 5118,
      "winner": 5119,
      "teasing": 5120,
      "outdoors": 5121,
      "decorated": 5122,
      "lines": 5123,
      "seag": 5124,
      "seagull": 5125,
      "twirling": 5126,
      "xu": 5127,
      "Abby": 5128,
      "slapped": 5129,
      "flutter": 5130,
      "Bubbles": 5131,
      "pearl": 5132,
      "firefight": 5133,
      "supplies": 5134,
      "neighbourhood": 5135,
      "underneath": 5136,
      "sights": 5137,
      "prov": 5138,
      "brushes": 5139,
      "yelling": 5140,
      "pancakes": 5141,
      "Susan": 5142,
      "tickets": 5143,
      "peaches": 5144,
      "introduce": 5145,
      "fully": 5146,
      "De": 5147,
      "rides": 5148,
      "sire": 5149,
      "begin": 5150,
      "struck": 5151,
      "siren": 5152,
      "mixing": 5153,
      "vow": 5154,
      "crum": 5155,
      "burrow": 5156,
      "weighed": 5157,
      "cones": 5158,
      "released": 5159,
      "release": 5160,
      "loving": 5161,
      "Mir": 5162,
      "sides": 5163,
      "permit": 5164,
      "confident": 5165,
      "Out": 5166,
      "sneaked": 5167,
      "draws": 5168,
      "rubbing": 5169,
      "zero": 5170,
      "youn": 5171,
      "indy": 5172,
      "realize": 5173,
      "baked": 5174,
      "grant": 5175,
      "stored": 5176,
      "luxu": 5177,
      ".'": 5178,
      "instructions": 5179,
      "spiders": 5180,
      "muffins": 5181,
      "pinched": 5182,
      "budge": 5183,
      "studying": 5184,
      "competition": 5185,
      "opin": 5186,
      "pockets": 5187,
      "strike": 5188,
      "shoulders": 5189,
      "emergen": 5190,
      "bunch": 5191,
      "œLook": 5192,
      "rol": 5193,
      "frosting": 5194,
      "Bir": 5195,
      "ica": 5196,
      "decides": 5197,
      "marks": 5198,
      "giggling": 5199,
      "ourselves": 5200,
      "stamps": 5201,
      "travell": 5202,
      "En": 5203,
      "œHello": 5204,
      "stitch": 5205,
      "Lou": 5206,
      "ruler": 5207,
      "scurried": 5208,
      "broom": 5209,
      "Carl": 5210,
      "€”": 5211,
      "strings": 5212,
      "prunes": 5213,
      "amb": 5214,
      "pears": 5215,
      "Wed": 5216,
      "strip": 5217,
      "Wednes": 5218,
      "poking": 5219,
      "ago": 5220,
      "repeated": 5221,
      "Mi": 5222,
      "hunt": 5223,
      "claps": 5224,
      "slim": 5225,
      "ruin": 5226,
      "Put": 5227,
      "stretching": 5228,
      "ots": 5229,
      "œThis": 5230,
      "anta": 5231,
      "Our": 5232,
      "Santa": 5233,
      "kins": 5234,
      "hest": 5235,
      "flap": 5236,
      "demanded": 5237,
      "motion": 5238,
      "kicking": 5239,
      "Bad": 5240,
      "mentioned": 5241,
      "Both": 5242,
      "smar": 5243,
      "control": 5244,
      "neighbors": 5245,
      "Jeff": 5246,
      "tonight": 5247,
      "touching": 5248,
      "protected": 5249,
      "keeps": 5250,
      "Luke": 5251,
      "goodnight": 5252,
      "sweeties": 5253,
      "Linda": 5254,
      "powers": 5255,
      "writes": 5256,
      "youth": 5257,
      "Tues": 5258,
      "fab": 5259,
      "ona": 5260,
      "Momo": 5261,
      "ler": 5262,
      "uctantly": 5263,
      "beard": 5264,
      "buckets": 5265,
      "ribbons": 5266,
      "soaked": 5267,
      "parked": 5268,
      "tiest": 5269,
      "prettiest": 5270,
      "camping": 5271,
      "icky": 5272,
      "barely": 5273,
      "zie": 5274,
      "horns": 5275,
      "discovering": 5276,
      "bouncy": 5277,
      "Get": 5278,
      "pect": 5279,
      "Kayla": 5280,
      "east": 5281,
      "œDonâ": 5282,
      "acted": 5283,
      "sorting": 5284,
      "stole": 5285,
      "Hoppy": 5286,
      "twinkling": 5287,
      "exture": 5288,
      "surface": 5289,
      "vies": 5290,
      "die": 5291,
      "Fri": 5292,
      "texture": 5293,
      "gazed": 5294,
      "result": 5295,
      "vowed": 5296,
      "hi": 5297,
      "weed": 5298,
      "œWhy": 5299,
      "babies": 5300,
      "purred": 5301,
      "movies": 5302,
      "Afterwards": 5303,
      "guys": 5304,
      "cautious": 5305,
      "eight": 5306,
      "steep": 5307,
      "cub": 5308,
      "Time": 5309,
      "nexpected": 5310,
      "expect": 5311,
      "Lizzy": 5312,
      "rac": 5313,
      "entire": 5314,
      "applauded": 5315,
      "zen": 5316,
      "Two": 5317,
      "silence": 5318,
      "ni": 5319,
      "sports": 5320,
      "shock": 5321,
      "aster": 5322,
      "loose": 5323,
      "pebbles": 5324,
      "luxury": 5325,
      "tickle": 5326,
      "urged": 5327,
      "emergency": 5328,
      "isten": 5329,
      "cky": 5330,
      "shelves": 5331,
      "dragons": 5332,
      "guns": 5333,
      "dragged": 5334,
      "cot": 5335,
      "honk": 5336,
      "Wednesday": 5337,
      "Uh": 5338,
      "Jenna": 5339,
      "unexpected": 5340,
      "dolphins": 5341,
      "strum": 5342,
      "rocking": 5343,
      "catches": 5344,
      "chewing": 5345,
      "Keep": 5346,
      "ladybug": 5347,
      "fabric": 5348,
      "mittens": 5349,
      "completed": 5350,
      "Cindy": 5351,
      "gle": 5352,
      "ults": 5353,
      "curtains": 5354,
      "blink": 5355,
      "muscles": 5356,
      "Wo": 5357,
      "Suzie": 5358,
      "ib": 5359,
      "Listen": 5360,
      "patience": 5361,
      "chases": 5362,
      "ledge": 5363,
      "flat": 5364,
      "introduced": 5365,
      "direction": 5366,
      "chips": 5367,
      "solution": 5368,
      "importance": 5369,
      "frozen": 5370,
      "Lena": 5371,
      "reluctantly": 5372,
      "season": 5373,
      "highest": 5374,
      "figured": 5375,
      "shivered": 5376,
      "wound": 5377,
      "Matt": 5378,
      "ppers": 5379,
      "librarian": 5380,
      "achieve": 5381,
      "rocked": 5382,
      "contest": 5383,
      "screaming": 5384,
      "pouring": 5385,
      "Ja": 5386,
      "Slow": 5387,
      "Dolly": 5388,
      "cough": 5389,
      "staring": 5390,
      "theirs": 5391,
      "sled": 5392,
      "aky": 5393,
      "hugging": 5394,
      "sorted": 5395,
      "include": 5396,
      "roaring": 5397,
      "œOh": 5398,
      "ads": 5399,
      "drives": 5400,
      "effort": 5401,
      "Mart": 5402,
      "ien": 5403,
      "youâ": 5404,
      "safer": 5405,
      "rings": 5406,
      "Tuesday": 5407,
      "mater": 5408,
      "haust": 5409,
      "lied": 5410,
      "materi": 5411,
      "planets": 5412,
      "situation": 5413,
      "policeman": 5414,
      "curly": 5415,
      "foods": 5416,
      "canâ": 5417,
      "knowledge": 5418,
      "sighs": 5419,
      "Mira": 5420,
      "cert": 5421,
      "matched": 5422,
      "irts": 5423,
      "awesome": 5424,
      "ki": 5425,
      "plent": 5426,
      "rip": 5427,
      "passing": 5428,
      "shined": 5429,
      "balancing": 5430,
      "rees": 5431,
      "exhaust": 5432,
      "flags": 5433,
      "master": 5434,
      "dared": 5435,
      "plenty": 5436,
      "towels": 5437,
      "slimy": 5438,
      "homework": 5439,
      "cheering": 5440,
      "Day": 5441,
      "bravery": 5442,
      "pretends": 5443,
      "accomplish": 5444,
      "dies": 5445,
      "swoop": 5446,
      "Ba": 5447,
      "truly": 5448,
      "jamas": 5449,
      "wedding": 5450,
      "arriage": 5451,
      "Jacob": 5452,
      "Nothing": 5453,
      "rainbows": 5454,
      "ents": 5455,
      "cuts": 5456,
      "goals": 5457,
      "nect": 5458,
      "zookeeper": 5459,
      "packing": 5460,
      "Tara": 5461,
      "sausages": 5462,
      "threat": 5463,
      "Pinky": 5464,
      "resting": 5465,
      "boom": 5466,
      "worker": 5467,
      "patted": 5468,
      "student": 5469,
      "Sn": 5470,
      "rance": 5471,
      "caused": 5472,
      "paintings": 5473,
      "radishes": 5474,
      "colored": 5475,
      "reaching": 5476,
      "arguing": 5477,
      "Excuse": 5478,
      "Lizz": 5479,
      "jects": 5480,
      "tles": 5481,
      "spraying": 5482,
      "growling": 5483,
      "blooming": 5484,
      "sobb": 5485,
      "crumbs": 5486,
      "Bird": 5487,
      "...": 5488,
      "exhausted": 5489,
      "waiter": 5490,
      "struggle": 5491,
      "vanish": 5492,
      "markers": 5493,
      "Lizzie": 5494,
      "sweets": 5495,
      "vin": 5496,
      "kneeled": 5497,
      "pout": 5498,
      "sticking": 5499,
      "Quick": 5500,
      "mane": 5501,
      "paddled": 5502,
      "sway": 5503,
      "startled": 5504,
      "ud": 5505,
      "traveled": 5506,
      "written": 5507,
      "rescued": 5508,
      "Jessica": 5509,
      "nets": 5510,
      "sen": 5511,
      "inviting": 5512,
      "cubes": 5513,
      "reveal": 5514,
      "expected": 5515,
      "dresser": 5516,
      "tails": 5517,
      "matching": 5518,
      "bottles": 5519,
      "dusty": 5520,
      "singer": 5521,
      "roads": 5522,
      "pots": 5523,
      "guest": 5524,
      "regretted": 5525,
      "marriage": 5526,
      "Julia": 5527,
      "cost": 5528,
      "fir": 5529,
      "immer": 5530,
      "Take": 5531,
      "learns": 5532,
      "princesses": 5533,
      "Pipp": 5534,
      "bars": 5535,
      "creating": 5536,
      "bloomed": 5537,
      "trembling": 5538,
      "project": 5539,
      "recorded": 5540,
      "arrive": 5541,
      "ripe": 5542,
      "Yeah": 5543,
      "pite": 5544,
      "pencils": 5545,
      "replaced": 5546,
      "isies": 5547,
      "workers": 5548,
      "bert": 5549,
      "snail": 5550,
      "tum": 5551,
      "disagree": 5552,
      "chuck": 5553,
      "observed": 5554,
      "included": 5555,
      "Fox": 5556,
      "Enjoy": 5557,
      "faced": 5558,
      "daisies": 5559,
      "prayer": 5560,
      "Run": 5561,
      "Fe": 5562,
      "timer": 5563,
      "firm": 5564,
      "uggles": 5565,
      "pajamas": 5566,
      "activities": 5567,
      "darkness": 5568,
      "organizing": 5569,
      "bend": 5570,
      "ranny": 5571,
      "worries": 5572,
      "ranger": 5573,
      "removed": 5574,
      "ventured": 5575,
      "wires": 5576,
      "relief": 5577,
      "stare": 5578,
      "seesaw": 5579,
      "completely": 5580,
      "angled": 5581,
      "Ah": 5582,
      "leader": 5583,
      "opening": 5584,
      "countryside": 5585,
      "fairies": 5586,
      "wasted": 5587,
      "Che": 5588,
      "storekeeper": 5589,
      "reply": 5590,
      "odd": 5591,
      "owners": 5592,
      "wow": 5593,
      "fault": 5594,
      "belly": 5595,
      "polishing": 5596,
      "folding": 5597,
      "partic": 5598,
      "Johnson": 5599,
      "quacked": 5600,
      "rious": 5601,
      "agrees": 5602,
      "usually": 5603,
      "stern": 5604,
      "becoming": 5605,
      "Sque": 5606,
      "copy": 5607,
      "rubs": 5608,
      "Slowly": 5609,
      "kites": 5610,
      "applaud": 5611,
      "flames": 5612,
      "Being": 5613,
      "mets": 5614,
      "wasnâ": 5615,
      "Jones": 5616,
      "everybody": 5617,
      "Doggy": 5618,
      "penguins": 5619,
      "poems": 5620,
      "melting": 5621,
      "slap": 5622,
      "gg": 5623,
      "coloured": 5624,
      "squealed": 5625,
      "Larry": 5626,
      "scales": 5627,
      "shaped": 5628,
      "healed": 5629,
      "rist": 5630,
      "crabs": 5631,
      "thro": 5632,
      "opinion": 5633,
      "Sur": 5634,
      "Prin": 5635,
      "helmets": 5636,
      "len": 5637,
      "marked": 5638,
      "logs": 5639,
      "robb": 5640,
      "laying": 5641,
      "throat": 5642,
      "allo": 5643,
      "tractor": 5644,
      "crowd": 5645,
      "dipped": 5646,
      "lollipops": 5647,
      "cash": 5648,
      "teaches": 5649,
      "twinkle": 5650,
      "polished": 5651,
      "seems": 5652,
      "staying": 5653,
      "groceries": 5654,
      "dentist": 5655,
      "June": 5656,
      "peeking": 5657,
      "provided": 5658,
      "rolls": 5659,
      "scra": 5660,
      "interested": 5661,
      "Christ": 5662,
      "knights": 5663,
      "iding": 5664,
      "valued": 5665,
      "snakes": 5666,
      "blows": 5667,
      "cautiously": 5668,
      "cure": 5669,
      "Stay": 5670,
      "Many": 5671,
      "cracked": 5672,
      "wallow": 5673,
      "filling": 5674,
      "lamb": 5675,
      "Sophia": 5676,
      "balanced": 5677,
      "zes": 5678,
      "winked": 5679,
      "protecting": 5680,
      "freed": 5681,
      "faraway": 5682,
      "actions": 5683,
      "desert": 5684,
      "misses": 5685,
      "signed": 5686,
      "swallow": 5687,
      "warn": 5688,
      "younger": 5689,
      "Lau": 5690,
      "closes": 5691,
      "Bess": 5692,
      "single": 5693,
      "listens": 5694,
      "iar": 5695,
      "chuckled": 5696,
      "wandering": 5697,
      "fuzzy": 5698,
      "crackers": 5699,
      "familiar": 5700,
      "Without": 5701,
      "particular": 5702,
      "Jazz": 5703,
      "pastries": 5704,
      "cous": 5705,
      "however": 5706,
      "beads": 5707,
      "roses": 5708,
      "directions": 5709,
      "œMommy": 5710,
      "naps": 5711,
      "froze": 5712,
      "Mel": 5713,
      "splashes": 5714,
      "yesterday": 5715,
      "ene": 5716,
      "roots": 5717,
      "rusty": 5718,
      "igi": 5719,
      "Mon": 5720,
      "Sim": 5721,
      "delivery": 5722,
      "œWhatâ": 5723,
      "bi": 5724,
      "itchy": 5725,
      "Abbie": 5726,
      "restored": 5727,
      "snowballs": 5728,
      "cent": 5729,
      "twis": 5730,
      "baker": 5731,
      "forehead": 5732,
      "gaze": 5733,
      "swooped": 5734,
      "wiggled": 5735,
      "lined": 5736,
      "hops": 5737,
      "Everybody": 5738,
      "fluttered": 5739,
      "Christmas": 5740,
      "Boo": 5741,
      "Mickey": 5742,
      "Gigi": 5743,
      "photos": 5744,
      "suitcase": 5745,
      "sweat": 5746,
      "toss": 5747,
      "somebody": 5748,
      "bumpy": 5749,
      "Laura": 5750,
      "gar": 5751,
      "remo": 5752,
      "swirl": 5753,
      "sew": 5754,
      "slam": 5755,
      "celebration": 5756,
      "refle": 5757,
      "Pam": 5758,
      "awake": 5759,
      "pastels": 5760,
      "Sparky": 5761,
      "pedals": 5762,
      "ker": 5763,
      "€˜": 5764,
      "trips": 5765,
      "yan": 5766,
      "backed": 5767,
      "Nick": 5768,
      "tallest": 5769,
      "cashier": 5770,
      "atches": 5771,
      "acting": 5772,
      "twin": 5773,
      "drif": 5774,
      "determin": 5775,
      "ility": 5776,
      "char": 5777,
      "darker": 5778,
      "determination": 5779,
      "secure": 5780,
      "ences": 5781,
      "remote": 5782,
      "speaking": 5783,
      "nectar": 5784,
      "Jon": 5785,
      "--": 5786,
      "sequ": 5787,
      "yum": 5788,
      "Chris": 5789,
      "piggy": 5790,
      "insist": 5791,
      "complaining": 5792,
      "knees": 5793,
      "recording": 5794,
      "Milo": 5795,
      "Pandy": 5796,
      "lies": 5797,
      "pleasure": 5798,
      "quid": 5799,
      "health": 5800,
      "silent": 5801,
      "miles": 5802,
      "accomplishment": 5803,
      "sneaky": 5804,
      "Zip": 5805,
      "entrance": 5806,
      "videos": 5807,
      "Woof": 5808,
      "Fine": 5809,
      "?\",": 5810,
      "liquid": 5811,
      "shirts": 5812,
      "ongest": 5813,
      "Mikey": 5814,
      "Jay": 5815,
      "delivered": 5816,
      "glee": 5817,
      "wears": 5818,
      "Any": 5819,
      "Squ": 5820,
      "rockets": 5821,
      "Stella": 5822,
      "opp": 5823,
      "mesmer": 5824,
      "cheeks": 5825,
      "Buzzy": 5826,
      "fits": 5827,
      "Emmy": 5828,
      "tricked": 5829,
      "burst": 5830,
      "itches": 5831,
      "beyond": 5832,
      "Roar": 5833,
      "insects": 5834,
      "afterwards": 5835,
      "Rob": 5836,
      "Wil": 5837,
      "hissed": 5838,
      "ks": 5839,
      "stolen": 5840,
      "consequ": 5841,
      "stays": 5842,
      "seven": 5843,
      "flake": 5844,
      "ths": 5845,
      "bowls": 5846,
      "tickled": 5847,
      "Excited": 5848,
      "pause": 5849,
      "joking": 5850,
      "farther": 5851,
      "affes": 5852,
      "scaring": 5853,
      "stem": 5854,
      "Princess": 5855,
      "sobbed": 5856,
      "deal": 5857,
      "Days": 5858,
      "tricky": 5859,
      "masks": 5860,
      "sense": 5861,
      "attack": 5862,
      "sandcastles": 5863,
      "mance": 5864,
      "rule": 5865,
      "covers": 5866,
      "instrum": 5867,
      "Bon": 5868,
      "giraffes": 5869,
      "performance": 5870,
      "?'": 5871,
      "œCome": 5872,
      "anger": 5873,
      "handful": 5874,
      "adding": 5875,
      "calmed": 5876,
      "Honey": 5877,
      "rever": 5878,
      "Robbie": 5879,
      "talented": 5880,
      "tangled": 5881,
      "candies": 5882,
      "smarter": 5883,
      "Maya": 5884,
      "pered": 5885,
      "scarves": 5886,
      "toed": 5887,
      "indeed": 5888,
      "lett": 5889,
      "choices": 5890,
      "achieved": 5891,
      "behavi": 5892,
      "Robby": 5893,
      "ortun": 5894,
      "stain": 5895,
      "leading": 5896,
      "Olive": 5897,
      "consequences": 5898,
      "yourselves": 5899,
      "bumps": 5900,
      "Water": 5901,
      "batteries": 5902,
      "reads": 5903,
      "hesitated": 5904,
      "itor": 5905,
      "impossible": 5906,
      "ory": 5907,
      "behaved": 5908,
      "badge": 5909,
      "leaning": 5910,
      "cans": 5911,
      "wrist": 5912,
      "lower": 5913,
      "Shh": 5914,
      "puppet": 5915,
      "beginning": 5916,
      "bows": 5917,
      "paddle": 5918,
      "Mat": 5919,
      "mixture": 5920,
      "Granny": 5921,
      "explorers": 5922,
      "Ki": 5923,
      "clowns": 5924,
      "darling": 5925,
      "Martha": 5926,
      "Fire": 5927,
      "magnets": 5928,
      "kicks": 5929,
      "outfit": 5930,
      "Meow": 5931,
      "ners": 5932,
      "weeping": 5933,
      "Karen": 5934,
      "recommended": 5935,
      "inst": 5936,
      "guy": 5937,
      "seeker": 5938,
      "Great": 5939,
      "Very": 5940,
      "œLet": 5941,
      "gracefully": 5942,
      "Bee": 5943,
      "bakery": 5944,
      "Mad": 5945,
      "flapping": 5946,
      "salty": 5947,
      "improved": 5948,
      "Robert": 5949,
      "swept": 5950,
      "iled": 5951,
      "firefighters": 5952,
      "deserve": 5953,
      "Baa": 5954,
      "wipes": 5955,
      "stroked": 5956,
      "swims": 5957,
      "complained": 5958,
      "Friends": 5959,
      "mushrooms": 5960,
      "Ear": 5961,
      "Snuggles": 5962,
      "orted": 5963,
      "thorn": 5964,
      "hider": 5965,
      "Ryan": 5966,
      "objects": 5967,
      "Mine": 5968,
      "knocks": 5969,
      "Abi": 5970,
      "dots": 5971,
      "ply": 5972,
      "teased": 5973,
      "basement": 5974,
      "travelled": 5975,
      "steer": 5976,
      "horiz": 5977,
      "tigers": 5978,
      "œDo": 5979,
      "third": 5980,
      "ops": 5981,
      "œYouâ": 5982,
      "Vroom": 5983,
      "blings": 5984,
      "parties": 5985,
      "cupcakes": 5986,
      "snuck": 5987,
      "hearing": 5988,
      "Mabel": 5989,
      "horizon": 5990,
      "ana": 5991,
      "heading": 5992,
      "ounce": 5993,
      "Nobody": 5994,
      "seconds": 5995,
      "Surpr": 5996,
      "siblings": 5997,
      "fever": 5998,
      "marker": 5999,
      "drums": 6000,
      "Only": 6001,
      "Jacky": 6002,
      "indro": 6003,
      "yells": 6004,
      "fluttering": 6005,
      "Yummy": 6006,
      "Ca": 6007,
      "jackets": 6008,
      "smiley": 6009,
      "lighter": 6010,
      "hallway": 6011,
      "Finn": 6012,
      "Fu": 6013,
      "snatched": 6014,
      "ware": 6015,
      "urry": 6016,
      "bedtime": 6017,
      "dip": 6018,
      "ruining": 6019,
      "rect": 6020,
      "buying": 6021,
      "œHi": 6022,
      "raindro": 6023,
      "Janie": 6024,
      "wrapping": 6025,
      "families": 6026,
      "Rover": 6027,
      "mies": 6028,
      "gems": 6029,
      "anno": 6030,
      "igning": 6031,
      "Along": 6032,
      "webs": 6033,
      "neither": 6034,
      "wouldnâ": 6035,
      "click": 6036,
      "paying": 6037,
      "celebrating": 6038,
      "gued": 6039,
      "scrubbed": 6040,
      "arrows": 6041,
      "lettuce": 6042,
      "puppies": 6043,
      "annoy": 6044,
      "œWow": 6045,
      "dollhouse": 6046,
      "wins": 6047,
      "among": 6048,
      "creamy": 6049,
      "rivers": 6050,
      "drifted": 6051,
      "peacefully": 6052,
      "ivity": 6053,
      "rumble": 6054,
      "treehouse": 6055,
      "widened": 6056,
      "wadd": 6057,
      "scratches": 6058,
      "Ral": 6059,
      "atur": 6060,
      "Gina": 6061,
      "iles": 6062,
      "source": 6063,
      "Cra": 6064,
      "tasks": 6065,
      "hides": 6066,
      "players": 6067,
      "repa": 6068,
      "Ralph": 6069,
      "Dr": 6070,
      "Ali": 6071,
      "icked": 6072,
      "willing": 6073,
      "wonâ": 6074,
      "cuddly": 6075,
      "rewarded": 6076,
      "losing": 6077,
      "squish": 6078,
      "immering": 6079,
      "Kiki": 6080,
      "Binky": 6081,
      "needles": 6082,
      "repaired": 6083,
      "shrinking": 6084,
      "including": 6085,
      "Hoo": 6086,
      "creativity": 6087,
      "seas": 6088,
      "Jackie": 6089,
      "Sadie": 6090,
      "echo": 6091,
      "hael": 6092,
      "temper": 6093,
      "ids": 6094,
      "addie": 6095,
      "Whee": 6096,
      "Maddie": 6097,
      "Try": 6098,
      "haw": 6099,
      "Ame": 6100,
      "visitor": 6101,
      "tiptoed": 6102,
      "creations": 6103,
      "ude": 6104,
      "tapped": 6105,
      "ongrat": 6106,
      "rising": 6107,
      "minerals": 6108,
      "hog": 6109,
      "grassy": 6110,
      "Michael": 6111,
      "separated": 6112,
      "sprinkled": 6113,
      "arran": 6114,
      "chop": 6115,
      "During": 6116,
      "printing": 6117,
      "chefs": 6118,
      "imagining": 6119,
      "earn": 6120,
      "gross": 6121,
      "intri": 6122,
      "granted": 6123,
      "tram": 6124,
      "Judy": 6125,
      "fears": 6126,
      "ters": 6127,
      "ongratul": 6128,
      "tiss": 6129,
      "limes": 6130,
      "Since": 6131,
      "pans": 6132,
      "decorating": 6133,
      "screwdriver": 6134,
      "conne": 6135,
      "pouted": 6136,
      "backwards": 6137,
      "ouch": 6138,
      "stomped": 6139,
      "dama": 6140,
      "hesitant": 6141,
      "Simon": 6142,
      "damage": 6143,
      "peppers": 6144,
      "grabbing": 6145,
      "onions": 6146,
      "forts": 6147,
      "Thatâ": 6148,
      "œMy": 6149,
      "itude": 6150,
      "squares": 6151,
      "diving": 6152,
      "stung": 6153,
      "unpacked": 6154,
      "todd": 6155,
      "peck": 6156,
      "Marie": 6157,
      "wobb": 6158,
      "Unt": 6159,
      "Earth": 6160,
      "planning": 6161,
      "Until": 6162,
      "Beep": 6163,
      "Momma": 6164,
      "slower": 6165,
      "Squeaky": 6166,
      "Oli": 6167,
      "sale": 6168,
      "item": 6169,
      "heavier": 6170,
      "ments": 6171,
      "beloved": 6172,
      "artist": 6173,
      "raindrops": 6174,
      "Que": 6175,
      "growls": 6176,
      "suits": 6177,
      "materials": 6178,
      "avoid": 6179,
      "center": 6180,
      "promises": 6181,
      "Todd": 6182,
      "Bluey": 6183,
      "trampol": 6184,
      "spice": 6185,
      "wrink": 6186,
      "snowmen": 6187,
      "audi": 6188,
      "pointy": 6189,
      "recipe": 6190,
      "itched": 6191,
      "surroundings": 6192,
      "forgiven": 6193,
      "rustling": 6194,
      "cousin": 6195,
      "ount": 6196,
      "ford": 6197,
      "Cu": 6198,
      "audience": 6199,
      "woof": 6200,
      "Lia": 6201,
      "gobbled": 6202,
      "neighbours": 6203,
      "Ew": 6204,
      "Pre": 6205,
      "Oops": 6206,
      "blocking": 6207,
      "slices": 6208,
      "Queen": 6209,
      "wiping": 6210,
      "temperature": 6211,
      "windy": 6212,
      "stool": 6213,
      "ido": 6214,
      "trampoline": 6215,
      "Star": 6216,
      "Bang": 6217,
      "discussed": 6218,
      "sailboat": 6219,
      "helpers": 6220,
      "wobbled": 6221,
      "snowball": 6222,
      "designed": 6223,
      "hedgehog": 6224,
      "couple": 6225,
      "nif": 6226,
      "itted": 6227,
      "moo": 6228,
      "mate": 6229,
      "feast": 6230,
      "Zara": 6231,
      "noses": 6232,
      "dreamt": 6233,
      "corners": 6234,
      "10": 6235,
      "ornaments": 6236,
      "Back": 6237,
      "Hold": 6238,
      "pecked": 6239,
      "slammed": 6240,
      "Frog": 6241,
      "afford": 6242,
      "swans": 6243,
      "eted": 6244,
      "hus": 6245,
      "hitting": 6246,
      "iley": 6247,
      "streets": 6248,
      "Li": 6249,
      "tissue": 6250,
      "meals": 6251,
      "requested": 6252,
      "action": 6253,
      "aside": 6254,
      "Love": 6255,
      "nine": 6256,
      "dads": 6257,
      "onge": 6258,
      "forks": 6259,
      "pon": 6260,
      "racco": 6261,
      "reflection": 6262,
      "curiously": 6263,
      "sponge": 6264,
      "vanilla": 6265,
      "Zoey": 6266,
      "sunflowers": 6267,
      "warnings": 6268,
      "duckling": 6269,
      "sparks": 6270,
      "changing": 6271,
      "plans": 6272,
      "Although": 6273,
      "snowflake": 6274,
      "prett": 6275,
      "astr": 6276,
      "praying": 6277,
      "Meg": 6278,
      "scor": 6279,
      "bits": 6280,
      "dances": 6281,
      "breathed": 6282,
      "coloring": 6283,
      "adult": 6284,
      "remembering": 6285,
      "Amelia": 6286,
      "ref": 6287,
      "zipping": 6288,
      "sation": 6289,
      "spreading": 6290,
      "dollars": 6291,
      "Ash": 6292,
      "Fido": 6293,
      "greeted": 6294,
      "shops": 6295,
      "cond": 6296,
      "intrigued": 6297,
      "chosen": 6298,
      "screws": 6299,
      "thrown": 6300,
      "twice": 6301,
      "raincoat": 6302,
      "prettier": 6303,
      "forgets": 6304,
      "pose": 6305,
      "rotted": 6306,
      "Farm": 6307,
      "hour": 6308,
      "ora": 6309,
      "tunnels": 6310,
      "ias": 6311,
      "spat": 6312,
      "potion": 6313,
      "onaut": 6314,
      "reason": 6315,
      "lings": 6316,
      "Under": 6317,
      "touches": 6318,
      "husband": 6319,
      "astronaut": 6320,
      "Am": 6321,
      "grandparents": 6322,
      "enthusias": 6323,
      "enthusiasm": 6324,
      "sailors": 6325,
      "daring": 6326,
      "gardener": 6327,
      "pens": 6328,
      "antic": 6329,
      "Davey": 6330,
      "scam": 6331,
      "spoonful": 6332,
      "superheroes": 6333,
      "ading": 6334,
      "endy": 6335,
      "wishing": 6336,
      "wraps": 6337,
      "skunk": 6338,
      "swords": 6339,
      "least": 6340,
      "dod": 6341,
      "reass": 6342,
      "spikes": 6343,
      "forgetting": 6344,
      "magician": 6345,
      "rotten": 6346,
      "mallow": 6347,
      "courag": 6348,
      "weekend": 6349,
      "Squir": 6350,
      "Nice": 6351,
      "shmallow": 6352,
      "steady": 6353,
      "bodies": 6354,
      "counts": 6355,
      "borrowed": 6356,
      "flavors": 6357,
      "bras": 6358,
      "encourag": 6359,
      "hopeful": 6360,
      "neare": 6361,
      "guests": 6362,
      "rains": 6363,
      "charac": 6364,
      "sever": 6365,
      "sending": 6366,
      "mesmerized": 6367,
      "ounced": 6368,
      "heroes": 6369,
      "correct": 6370,
      "Rain": 6371,
      "ition": 6372,
      "Wendy": 6373,
      "snuggle": 6374,
      "Too": 6375,
      "Sof": 6376,
      "neatly": 6377,
      "stroke": 6378,
      "buzzed": 6379,
      "oni": 6380,
      "grows": 6381,
      "handsome": 6382,
      "refresh": 6383,
      "amed": 6384,
      "feeding": 6385,
      "Squirrel": 6386,
      "Mouse": 6387,
      "ades": 6388,
      "tty": 6389,
      "Spl": 6390,
      "certain": 6391,
      "sim": 6392,
      "delivering": 6393,
      "marshmallow": 6394,
      "thatâ": 6395,
      "dived": 6396,
      "raccoon": 6397,
      "politely": 6398,
      "mints": 6399,
      "flight": 6400,
      "foc": 6401,
      "suffering": 6402,
      "Farmer": 6403,
      "ann": 6404,
      "bage": 6405,
      "misch": 6406,
      "alien": 6407,
      "onward": 6408,
      "antha": 6409,
      "Samantha": 6410,
      "ping": 6411,
      "Ruth": 6412,
      "napkins": 6413,
      "Min": 6414,
      "zebras": 6415,
      "sneezing": 6416,
      "grum": 6417,
      "stands": 6418,
      "Frosty": 6419,
      "plucked": 6420,
      "warmer": 6421,
      "Never": 6422,
      "honked": 6423,
      "crashing": 6424,
      "defe": 6425,
      "Des": 6426,
      "baths": 6427,
      "Holly": 6428,
      "rushing": 6429,
      "rup": 6430,
      "Maddy": 6431,
      "Bessie": 6432,
      "poster": 6433,
      "lifts": 6434,
      "matters": 6435,
      "lungs": 6436,
      "Birthday": 6437,
      "refreshing": 6438,
      "students": 6439,
      "crew": 6440,
      "seaweed": 6441,
      "thud": 6442,
      "bba": 6443,
      "increased": 6444,
      "unsure": 6445,
      "watering": 6446,
      "resis": 6447,
      "joining": 6448,
      "pad": 6449,
      "oatmeal": 6450,
      "swallowed": 6451,
      "toddler": 6452,
      "Choo": 6453,
      "ropes": 6454,
      "Ray": 6455,
      "preparing": 6456,
      "whispers": 6457,
      "Patch": 6458,
      "œBut": 6459,
      "glued": 6460,
      "Dani": 6461,
      "respond": 6462,
      "toaster": 6463,
      "Owl": 6464,
      "œMom": 6465,
      "performed": 6466,
      "leads": 6467,
      "obeyed": 6468,
      "trembled": 6469,
      "presses": 6470,
      "smelling": 6471,
      "biting": 6472,
      "starfish": 6473,
      "dancers": 6474,
      "triangles": 6475,
      "wobbly": 6476,
      "express": 6477,
      "lessons": 6478,
      "Jod": 6479,
      "Dog": 6480,
      "confli": 6481,
      "postman": 6482,
      "cushions": 6483,
      "resisted": 6484,
      "œWell": 6485,
      "merry": 6486,
      "hawk": 6487,
      "Tuna": 6488,
      "scraped": 6489,
      "freedom": 6490,
      "geese": 6491,
      "talks": 6492,
      "focused": 6493,
      "adults": 6494,
      "Bubba": 6495,
      "puff": 6496,
      "softer": 6497,
      "waddled": 6498,
      "Mina": 6499,
      "panicked": 6500,
      "nu": 6501,
      "sniffs": 6502,
      "slips": 6503,
      "blast": 6504,
      "firmly": 6505,
      "necklaces": 6506,
      "Megan": 6507,
      "formed": 6508,
      "ados": 6509,
      "wri": 6510,
      "dropping": 6511,
      "joyful": 6512,
      "tempt": 6513,
      "encouraging": 6514,
      "firefly": 6515,
      "drawers": 6516,
      "wiggle": 6517,
      "behaving": 6518,
      "tested": 6519,
      "Flops": 6520,
      "frowning": 6521,
      "worn": 6522,
      "œWhere": 6523,
      "Mean": 6524,
      "tables": 6525,
      "Katy": 6526,
      "Fuzzy": 6527,
      "lifting": 6528,
      "iona": 6529,
      "squeak": 6530,
      "nervously": 6531,
      "rout": 6532,
      "belts": 6533,
      "faded": 6534,
      "Ph": 6535,
      "bully": 6536,
      "scampered": 6537,
      "Se": 6538,
      "aven": 6539,
      "humans": 6540,
      "Sofia": 6541,
      "drivers": 6542,
      "appreciation": 6543,
      "Fiona": 6544,
      "respected": 6545,
      "Eva": 6546,
      "drawn": 6547,
      "thoughts": 6548,
      "Flopsy": 6549,
      "ev": 6550,
      "Freddie": 6551,
      "stacked": 6552,
      "spins": 6553,
      "Spe": 6554,
      "quarreling": 6555,
      "twinkled": 6556,
      "firefighter": 6557,
      "pours": 6558,
      "robber": 6559,
      "throughout": 6560,
      "leapt": 6561,
      "pigeons": 6562,
      "elf": 6563,
      "pennies": 6564,
      "scient": 6565,
      "ease": 6566,
      "cept": 6567,
      "oky": 6568,
      "waterfall": 6569,
      "Meanwhile": 6570,
      "polar": 6571,
      "months": 6572,
      "tricycle": 6573,
      "asing": 6574,
      "overcome": 6575,
      "bravest": 6576,
      "avocados": 6577,
      "conver": 6578,
      "strongest": 6579,
      "notes": 6580,
      "playtime": 6581,
      "cosy": 6582,
      "tar": 6583,
      "prove": 6584,
      "gonna": 6585,
      "Spr": 6586,
      "wept": 6587,
      "inter": 6588,
      "loading": 6589,
      "munch": 6590,
      "Jonny": 6591,
      "scored": 6592,
      "nood": 6593,
      "manag": 6594,
      "echoed": 6595,
      "Mother": 6596,
      "wakes": 6597,
      "bots": 6598,
      "colder": 6599,
      "garbage": 6600,
      "performing": 6601,
      "Jojo": 6602,
      "amount": 6603,
      "sweetest": 6604,
      "designs": 6605,
      "explorer": 6606,
      "Pretty": 6607,
      "playroom": 6608,
      "Hope": 6609,
      "sank": 6610,
      "Splash": 6611,
      "flown": 6612,
      "bells": 6613,
      "pumpkins": 6614,
      "bably": 6615,
      "forgiving": 6616,
      "assm": 6617,
      "tage": 6618,
      "Yesterday": 6619,
      "ties": 6620,
      "blinking": 6621,
      "probably": 6622,
      "Isn": 6623,
      "Mae": 6624,
      "tossed": 6625,
      "marshmallows": 6626,
      "iment": 6627,
      "robots": 6628,
      "Moo": 6629,
      "engers": 6630,
      "guide": 6631,
      "Louise": 6632,
      "congratul": 6633,
      "œIf": 6634,
      "squeezing": 6635,
      "shown": 6636,
      "causing": 6637,
      "œOkay": 6638,
      "cobwebs": 6639,
      "squishy": 6640,
      "Despite": 6641,
      "dred": 6642,
      "...\"": 6643,
      "passengers": 6644,
      "Curious": 6645,
      "spices": 6646,
      "Tam": 6647,
      "distra": 6648,
      "tighter": 6649,
      "yielded": 6650,
      "Birdy": 6651,
      "angels": 6652,
      "?!\"": 6653,
      "napping": 6654,
      "healing": 6655,
      "Alright": 6656,
      "ais": 6657,
      "pound": 6658,
      "reversed": 6659,
      "Maisy": 6660,
      "fact": 6661,
      "tying": 6662,
      "compe": 6663,
      "til": 6664,
      "ilda": 6665,
      "Hallo": 6666,
      "Green": 6667,
      "giggles": 6668,
      "aimed": 6669,
      "tran": 6670,
      "Ally": 6671,
      "sou": 6672,
      "nearly": 6673,
      "ships": 6674,
      "Still": 6675,
      "Rocky": 6676,
      "Start": 6677,
      "pays": 6678,
      "sewing": 6679,
      "instruments": 6680,
      "Halloween": 6681,
      "cas": 6682,
      "conflict": 6683,
      "Auntie": 6684,
      "quie": 6685,
      "licking": 6686,
      "kittens": 6687,
      "wider": 6688,
      "nuzz": 6689,
      "sadd": 6690,
      "doorway": 6691,
      "Bru": 6692,
      "elle": 6693,
      "blocked": 6694,
      "paintbrush": 6695,
      "clues": 6696,
      "pant": 6697,
      "ists": 6698,
      "brushing": 6699,
      "appreciated": 6700,
      "cottage": 6701,
      "Surprise": 6702,
      "breathing": 6703,
      "Pippin": 6704,
      "maker": 6705,
      "paths": 6706,
      "heartbroken": 6707,
      "passports": 6708,
      "evil": 6709,
      "Becky": 6710,
      "scurry": 6711,
      "mailed": 6712,
      "pins": 6713,
      "merma": 6714,
      "gaz": 6715,
      "Pippa": 6716,
      "slipping": 6717,
      "sweep": 6718,
      "connected": 6719,
      "figures": 6720,
      "repeating": 6721,
      "idey": 6722,
      "rainy": 6723,
      "soaking": 6724,
      "twisting": 6725,
      "results": 6726,
      "behavior": 6727,
      "crossing": 6728,
      "twisty": 6729,
      "grandchild": 6730,
      "accomplished": 6731,
      "within": 6732,
      "surfing": 6733,
      "damaged": 6734,
      "puzzled": 6735,
      "Spidey": 6736,
      "suffered": 6737,
      "Ly": 6738,
      "Feel": 6739,
      "tuck": 6740,
      "€,": 6741,
      "shrug": 6742,
      "oysters": 6743,
      "responsib": 6744,
      "surrend": 6745,
      "hundred": 6746,
      "Fight": 6747,
      "buses": 6748,
      "Up": 6749,
      "shovels": 6750,
      "several": 6751,
      "noodles": 6752,
      "toward": 6753,
      "roars": 6754,
      "despite": 6755,
      "Poor": 6756,
      "finite": 6757,
      "risks": 6758,
      "Eliz": 6759,
      "finishing": 6760,
      "Eliza": 6761,
      "luckily": 6762,
      "œPlease": 6763,
      "bracele": 6764,
      "supported": 6765,
      "lending": 6766,
      "bracelets": 6767,
      "humming": 6768,
      "streamers": 6769,
      "Frankie": 6770,
      "surrendered": 6771,
      "Ar": 6772,
      "awoke": 6773,
      "Janey": 6774,
      "Kelly": 6775,
      "fleas": 6776,
      "Kids": 6777,
      "lever": 6778,
      "byes": 6779,
      "cleaner": 6780,
      "Goodnight": 6781,
      "quieter": 6782,
      "via": 6783,
      "shady": 6784,
      "finitely": 6785,
      "insp": 6786,
      "goodbyes": 6787,
      "whose": 6788,
      "La": 6789,
      "ignoring": 6790,
      "fantastic": 6791,
      "Pepper": 6792,
      "rather": 6793,
      "œOf": 6794,
      "ilder": 6795,
      "stitches": 6796,
      "cuddles": 6797,
      "edges": 6798,
      "tasting": 6799,
      "surfboard": 6800,
      "Fighting": 6801,
      "slither": 6802,
      "frowns": 6803,
      "erk": 6804,
      "tablet": 6805,
      "rays": 6806,
      "ponies": 6807,
      "Wally": 6808,
      "stroll": 6809,
      "cloudy": 6810,
      "Kevin": 6811,
      "abby": 6812,
      "final": 6813,
      "cca": 6814,
      "handing": 6815,
      "sped": 6816,
      "Froggy": 6817,
      "Pu": 6818,
      "hairdresser": 6819,
      "afar": 6820,
      "locks": 6821,
      "coral": 6822,
      "Duck": 6823,
      "thorns": 6824,
      "snowflakes": 6825,
      "cotton": 6826,
      "Does": 6827,
      "smal": 6828,
      "definitely": 6829,
      "battle": 6830,
      "presented": 6831,
      "Trust": 6832,
      "ppies": 6833,
      "kings": 6834,
      "correctly": 6835,
      "gesture": 6836,
      "wisely": 6837,
      "smallest": 6838,
      "Bow": 6839,
      "reminding": 6840,
      "deed": 6841,
      "blu": 6842,
      "rotting": 6843,
      "driveway": 6844,
      "œNow": 6845,
      "newfound": 6846,
      "peeled": 6847,
      "vines": 6848,
      "sharks": 6849,
      "decisions": 6850,
      "greet": 6851,
      "Bri": 6852,
      "prick": 6853,
      "chopped": 6854,
      "Hurry": 6855,
      "fishes": 6856,
      "squeaked": 6857,
      "weeds": 6858,
      "arranged": 6859,
      "swimsuit": 6860,
      "symbols": 6861,
      "rior": 6862,
      "warrior": 6863,
      "grandson": 6864,
      "recor": 6865,
      "experien": 6866,
      "Bounce": 6867,
      "simply": 6868,
      "exercises": 6869,
      "Daniel": 6870,
      "except": 6871,
      "nasty": 6872,
      "Jax": 6873,
      "granddaughter": 6874,
      "stopping": 6875,
      "wobble": 6876,
      "respon": 6877,
      "bandages": 6878,
      "response": 6879,
      "inspired": 6880,
      "date": 6881,
      "Phil": 6882,
      "Fish": 6883,
      "Say": 6884,
      "occas": 6885,
      "lent": 6886,
      "tipped": 6887,
      "Ana": 6888,
      "banged": 6889,
      "gras": 6890,
      "flipped": 6891,
      "travels": 6892,
      "darlings": 6893,
      "ider": 6894,
      "disturbing": 6895,
      "Bro": 6896,
      "Make": 6897,
      "purr": 6898,
      "force": 6899,
      "Stan": 6900,
      "œHey": 6901,
      "ister": 6902,
      "covering": 6903,
      "Roger": 6904,
      "fills": 6905,
      "pedaled": 6906,
      "Tig": 6907,
      "spits": 6908,
      "travelling": 6909,
      "punishment": 6910,
      "birdhouse": 6911,
      "footsteps": 6912,
      "chocolates": 6913,
      "scarecrow": 6914,
      "Gus": 6915,
      "Joan": 6916,
      "Dory": 6917,
      "belle": 6918,
      "Feeling": 6919,
      "Elle": 6920,
      "Snowman": 6921,
      "congratulated": 6922,
      "windowsill": 6923,
      "cheers": 6924,
      "forests": 6925,
      "planting": 6926,
      "apologised": 6927,
      "Other": 6928,
      "mered": 6929,
      "Excitedly": 6930,
      "believing": 6931,
      "ashed": 6932,
      "trotted": 6933,
      "ddie": 6934,
      "Patty": 6935,
      "Playing": 6936,
      "Right": 6937,
      "reunited": 6938,
      "reassured": 6939,
      "ali": 6940,
      "nodding": 6941,
      "essa": 6942,
      "andas": 6943,
      "campfire": 6944,
      "backpacks": 6945,
      "magnif": 6946,
      "clerk": 6947,
      "encouragement": 6948,
      "focus": 6949,
      "poppies": 6950,
      "marve": 6951,
      "terrified": 6952,
      "issa": 6953,
      "sails": 6954,
      "knots": 6955,
      "solving": 6956,
      "officers": 6957,
      "Sweet": 6958,
      "Nancy": 6959,
      "images": 6960,
      "sess": 6961,
      "Elly": 6962,
      "activity": 6963,
      "Amanda": 6964,
      "Magic": 6965,
      "mood": 6966,
      "expert": 6967,
      "surprising": 6968,
      "Man": 6969,
      "cour": 6970,
      "delayed": 6971,
      "testing": 6972,
      "chilly": 6973,
      "concert": 6974,
      "changes": 6975,
      "spills": 6976,
      "yelped": 6977,
      "grip": 6978,
      "wrinkled": 6979,
      "ives": 6980,
      "speeding": 6981,
      "Charlot": 6982,
      "Jean": 6983,
      "Jump": 6984,
      "imagin": 6985,
      "masterpiece": 6986,
      "Lion": 6987,
      "Deal": 6988,
      "Woo": 6989,
      "calmly": 6990,
      "Charlotte": 6991,
      "Quackers": 6992,
      "Startled": 6993,
      "gears": 6994,
      "treated": 6995,
      "sniffing": 6996,
      "bless": 6997,
      "comforting": 6998,
      "Outside": 6999,
      "braver": 7000,
      "suggestion": 7001,
      "Sir": 7002,
      "discussing": 7003,
      "osh": 7004,
      "pleaded": 7005,
      "Ty": 7006,
      "displayed": 7007,
      "labels": 7008,
      "mermaid": 7009,
      "acle": 7010,
      "stumble": 7011,
      "flowing": 7012,
      "magazines": 7013,
      "mischie": 7014,
      "spies": 7015,
      "worrying": 7016,
      "seller": 7017,
      "Anytime": 7018,
      "acles": 7019,
      "bothering": 7020,
      "aware": 7021,
      "experienced": 7022,
      "mischievous": 7023,
      "Wor": 7024,
      "height": 7025,
      "understands": 7026,
      "emma": 7027,
      "admiration": 7028,
      "puck": 7029,
      "unfortunately": 7030,
      "burying": 7031,
      "although": 7032,
      "scent": 7033,
      "belongings": 7034,
      "crowns": 7035,
      "efforts": 7036,
      "foxes": 7037,
      "jars": 7038,
      "posit": 7039,
      "cons": 7040,
      "toolbox": 7041,
      "refuse": 7042,
      "Ava": 7043,
      "buddy": 7044,
      "classm": 7045,
      "squaw": 7046,
      "Which": 7047,
      "ya": 7048,
      "Carol": 7049,
      "Spring": 7050,
      "colla": 7051,
      "dragonfly": 7052,
      "Dear": 7053,
      "Tess": 7054,
      "bitten": 7055,
      "baskets": 7056,
      "artwork": 7057,
      "tweet": 7058,
      "Eddie": 7059,
      "Elsa": 7060,
      "parted": 7061,
      "vehicles": 7062,
      "Youâ": 7063,
      "fires": 7064,
      "gazing": 7065,
      "Satur": 7066,
      "packages": 7067,
      "dump": 7068,
      "Snowball": 7069,
      "Open": 7070,
      "peas": 7071,
      "tumbled": 7072,
      "seashells": 7073,
      "annoyed": 7074,
      "Lina": 7075,
      "loops": 7076,
      "sheets": 7077,
      "pandas": 7078,
      "lody": 7079,
      "ugging": 7080,
      "œThe": 7081,
      "warmly": 7082,
      "business": 7083,
      "momma": 7084,
      "desper": 7085,
      "sets": 7086,
      "wealth": 7087,
      "curl": 7088,
      "sunscreen": 7089,
      "Butter": 7090,
      "material": 7091,
      "Care": 7092,
      "serv": 7093,
      "nibbled": 7094,
      "conqu": 7095,
      "ka": 7096,
      "Sasha": 7097,
      "Zero": 7098,
      "prayers": 7099,
      "Arr": 7100,
      "œSure": 7101,
      "untied": 7102,
      "conversation": 7103,
      "creams": 7104,
      "Rudy": 7105,
      "insisting": 7106,
      "Tammy": 7107,
      "argum": 7108,
      "countered": 7109,
      "coach": 7110,
      "environ": 7111,
      "scram": 7112,
      "Terry": 7113,
      "Jas": 7114,
      "sewed": 7115,
      "ppa": 7116,
      "Helen": 7117,
      "teachers": 7118,
      "environment": 7119,
      "races": 7120,
      "joins": 7121,
      "whispering": 7122,
      "scurrying": 7123,
      "purpose": 7124,
      "orders": 7125,
      "Fortun": 7126,
      "encountered": 7127,
      "beaver": 7128,
      "tilted": 7129,
      "Fortunately": 7130,
      "joked": 7131,
      "troubles": 7132,
      "permitted": 7133,
      "aim": 7134,
      "spooky": 7135,
      "tment": 7136,
      "airy": 7137,
      "jack": 7138,
      "hoops": 7139,
      "loses": 7140,
      "cowboy": 7141,
      "slee": 7142,
      "Twink": 7143,
      "type": 7144,
      "Saturday": 7145,
      "diamonds": 7146,
      "Jason": 7147,
      "ening": 7148,
      "genie": 7149,
      "quarre": 7150,
      "pupils": 7151,
      "aint": 7152,
      "burger": 7153,
      "grandfather": 7154,
      "Twinkle": 7155,
      "Ricky": 7156,
      "iscu": 7157,
      "dot": 7158,
      "Stitch": 7159,
      "scientist": 7160,
      "Isa": 7161,
      "Ka": 7162,
      "anticip": 7163,
      "turtles": 7164,
      "whim": 7165,
      "queens": 7166,
      "tapping": 7167,
      "custom": 7168,
      "beaming": 7169,
      "Sleep": 7170,
      "glittering": 7171,
      "Grand": 7172,
      "charge": 7173,
      "Speedy": 7174,
      "tubes": 7175,
      "nearest": 7176,
      "shall": 7177,
      "Bert": 7178,
      "Izzy": 7179,
      "Willi": 7180,
      "plugged": 7181,
      "spells": 7182,
      "cleared": 7183,
      "opportun": 7184,
      "œSee": 7185,
      "rier": 7186,
      "visitors": 7187,
      "declar": 7188,
      "untie": 7189,
      "customers": 7190,
      "Nana": 7191,
      "dressing": 7192,
      "Friend": 7193,
      "William": 7194,
      "vinced": 7195,
      "wasting": 7196,
      "convinced": 7197,
      "quet": 7198,
      "Seeing": 7199,
      "nurses": 7200,
      "films": 7201,
      "Bobbie": 7202,
      "angle": 7203,
      "wounds": 7204,
      "ching": 7205,
      "fins": 7206,
      "Elsie": 7207,
      "hover": 7208,
      "swollen": 7209,
      "Gu": 7210,
      "goats": 7211,
      "Taking": 7212,
      "donkey": 7213,
      "examining": 7214,
      "hunters": 7215,
      "rely": 7216,
      "slowed": 7217,
      "rowed": 7218,
      "sweaty": 7219,
      "declared": 7220,
      "buckled": 7221,
      "characters": 7222,
      "bathing": 7223,
      "Finny": 7224,
      "Eric": 7225,
      "Im": 7226,
      "trans": 7227,
      "osite": 7228,
      "ilities": 7229,
      "failed": 7230,
      "opposite": 7231,
      "Bongo": 7232,
      "forgiveness": 7233,
      "active": 7234,
      "mun": 7235,
      "goodies": 7236,
      "Ange": 7237,
      "Andre": 7238,
      "tidied": 7239,
      "scratching": 7240,
      "seagulls": 7241,
      "youngest": 7242,
      "guessing": 7243,
      "peep": 7244,
      "builder": 7245,
      "earned": 7246,
      "Rebe": 7247,
      "sternly": 7248,
      "Pick": 7249,
      "thanking": 7250,
      "Chick": 7251,
      "Con": 7252,
      "beeped": 7253,
      "Peppa": 7254,
      "scrambled": 7255,
      "Sk": 7256,
      "shin": 7257,
      "spy": 7258,
      "meowing": 7259,
      "rescuing": 7260,
      "dripping": 7261,
      "drift": 7262,
      "jud": 7263,
      "questioned": 7264,
      "nibble": 7265,
      "responsibility": 7266,
      "hike": 7267,
      "grat": 7268,
      "picnics": 7269,
      "bou": 7270,
      "anticipation": 7271,
      "bouquet": 7272,
      "plug": 7273,
      "aisle": 7274,
      "responded": 7275,
      "Tessa": 7276,
      "floors": 7277,
      "Per": 7278,
      "knocking": 7279,
      "smashed": 7280,
      "discoveries": 7281,
      "tires": 7282,
      "emerged": 7283,
      "attacked": 7284,
      "explains": 7285,
      "Amber": 7286,
      "lipstick": 7287,
      "vibr": 7288,
      "Ice": 7289,
      "œWho": 7290,
      "decoration": 7291,
      "gratitude": 7292,
      "Mam": 7293,
      "Show": 7294,
      "classmates": 7295,
      "manners": 7296,
      "aeroplanes": 7297,
      "vive": 7298,
      "stall": 7299,
      "Brian": 7300,
      "conv": 7301,
      "visits": 7302,
      "Olivia": 7303,
      "Gary": 7304,
      "munk": 7305,
      "signing": 7306,
      "girlâ": 7307,
      "zooms": 7308,
      "inchworm": 7309,
      "ippy": 7310,
      "survive": 7311,
      "sprout": 7312,
      "Pene": 7313,
      "instantly": 7314,
      "breaths": 7315,
      "Ni": 7316,
      "wiggly": 7317,
      "twists": 7318,
      "beehive": 7319,
      "Feli": 7320,
      "poses": 7321,
      "Step": 7322,
      "tho": 7323,
      "Robo": 7324,
      "Rebecca": 7325,
      "bond": 7326,
      "Penelope": 7327,
      "sill": 7328,
      "tops": 7329,
      "rumbling": 7330,
      "Matilda": 7331,
      "increasing": 7332,
      "Zoomy": 7333,
      "shrunk": 7334,
      "Sparkle": 7335,
      "ration": 7336,
      "seals": 7337,
      "Behind": 7338,
      "flaps": 7339,
      "Crabby": 7340,
      "brightest": 7341,
      "elbow": 7342,
      "manager": 7343,
      "argument": 7344,
      "munched": 7345,
      "purrs": 7346,
      "chipmunk": 7347,
      "swaying": 7348,
      "Ri": 7349,
      "seashell": 7350,
      "idence": 7351,
      "shimmering": 7352,
      "winding": 7353,
      "lowered": 7354,
      "flips": 7355,
      "aliens": 7356,
      "ittered": 7357,
      "groan": 7358,
      "custo": 7359,
      "movements": 7360,
      "doorbell": 7361,
      "cracks": 7362,
      "whoever": 7363,
      "prevented": 7364,
      "honking": 7365,
      "œGood": 7366,
      "announced": 7367,
      "Shelly": 7368,
      "Hoot": 7369,
      "Ele": 7370,
      "address": 7371,
      "ssss": 7372,
      "mosquitoes": 7373,
      "wrigg": 7374,
      "offering": 7375,
      "chea": 7376,
      "switched": 7377,
      "prickly": 7378,
      "million": 7379,
      "taped": 7380,
      "nuzzled": 7381,
      "Arrr": 7382,
      "Ashley": 7383,
      "xy": 7384,
      "erosity": 7385,
      "swayed": 7386,
      "chant": 7387,
      "aret": 7388,
      "minds": 7389,
      "Jilly": 7390,
      "crawls": 7391,
      "shines": 7392,
      "designing": 7393,
      "gasp": 7394,
      "whistles": 7395,
      "dodged": 7396,
      "stetho": 7397,
      "jobs": 7398,
      "swap": 7399,
      "rats": 7400,
      "cares": 7401,
      "destroying": 7402,
      "badger": 7403,
      "glimmering": 7404,
      "Fre": 7405,
      "exploded": 7406,
      "smelt": 7407,
      "Ever": 7408,
      "yl": 7409,
      "knives": 7410,
      "racie": 7411,
      "recorder": 7412,
      "Over": 7413,
      "squin": 7414,
      "generosity": 7415,
      "observing": 7416,
      "scolds": 7417,
      "beautifully": 7418,
      "snaps": 7419,
      "Quickly": 7420,
      "customer": 7421,
      "Gracie": 7422,
      "beating": 7423,
      "crops": 7424,
      "stamped": 7425,
      "scooters": 7426,
      "Gabby": 7427,
      "checkout": 7428,
      "dangers": 7429,
      "Cara": 7430,
      "gues": 7431,
      "Bonnie": 7432,
      "germs": 7433,
      "languages": 7434,
      "robbers": 7435,
      "Ac": 7436,
      "soo": 7437,
      "honesty": 7438,
      "routine": 7439,
      "closing": 7440,
      "paddling": 7441,
      "tummies": 7442,
      "dryer": 7443,
      "drowned": 7444,
      "ability": 7445,
      "supplied": 7446,
      "stethoscope": 7447,
      "clicked": 7448,
      "intent": 7449,
      "haven": 7450,
      "scen": 7451,
      "expecting": 7452,
      "ggies": 7453,
      "veggies": 7454,
      "burgers": 7455,
      "laptop": 7456,
      "astronauts": 7457,
      "whatâ": 7458,
      "Rudolph": 7459,
      "whoosh": 7460,
      "ruff": 7461,
      "Cook": 7462,
      "ips": 7463,
      "Peggy": 7464,
      "tidying": 7465,
      "statues": 7466,
      "court": 7467,
      "Nora": 7468,
      "dears": 7469,
      "Prince": 7470,
      "Candy": 7471,
      "hadow": 7472,
      "œMaybe": 7473,
      "shor": 7474,
      "scul": 7475,
      "unpacking": 7476,
      "cupcake": 7477,
      "particularly": 7478,
      "conduc": 7479,
      "adds": 7480,
      "ita": 7481,
      "chatted": 7482,
      "cafe": 7483,
      "cocoon": 7484,
      "novels": 7485,
      "steering": 7486,
      "wenty": 7487,
      "pea": 7488,
      "cope": 7489,
      "reminds": 7490,
      "ghosts": 7491,
      "Belle": 7492,
      "conductor": 7493,
      "tin": 7494,
      "rows": 7495,
      "appla": 7496,
      "Tyler": 7497,
      "matey": 7498,
      "iff": 7499,
      "uddles": 7500,
      "dollar": 7501,
      "dock": 7502,
      "hardest": 7503,
      "shorts": 7504,
      "floats": 7505,
      "applause": 7506,
      "Achoo": 7507,
      "Oink": 7508,
      "wiser": 7509,
      "healthier": 7510,
      "heaven": 7511,
      "cutter": 7512,
      "awful": 7513,
      "Ky": 7514,
      "nother": 7515,
      "Another": 7516,
      "Fairy": 7517,
      "stretches": 7518,
      "sculpt": 7519,
      "Riley": 7520,
      "elect": 7521,
      "minded": 7522,
      "Zack": 7523,
      "Carla": 7524,
      "Apr": 7525,
      "squished": 7526,
      "burnt": 7527,
      "Brad": 7528,
      "nch": 7529,
      "vour": 7530,
      "bothered": 7531,
      "Sup": 7532,
      "Whatâ": 7533,
      "April": 7534,
      "traded": 7535,
      "llas": 7536,
      "beast": 7537,
      "wildflowers": 7538,
      "gap": 7539,
      "combed": 7540,
      "fascinating": 7541,
      "Andrew": 7542,
      "cock": 7543,
      "overhead": 7544,
      "snug": 7545,
      "syrup": 7546,
      "carries": 7547,
      "opinions": 7548,
      "nights": 7549,
      "nests": 7550,
      "flashing": 7551,
      "Flora": 7552,
      "Foxy": 7553,
      "sprays": 7554,
      "idnight": 7555,
      "phones": 7556,
      "container": 7557,
      "providing": 7558,
      "faint": 7559,
      "plo": 7560,
      "Rosa": 7561,
      "umbrellas": 7562,
      "Paula": 7563,
      "pleas": 7564,
      "serving": 7565,
      "Again": 7566,
      "experiences": 7567,
      "returning": 7568,
      "ashes": 7569,
      "killed": 7570,
      "deserved": 7571,
      "shorter": 7572,
      "sculpture": 7573,
      "Sw": 7574,
      "Wigg": 7575,
      "œOk": 7576,
      "tearing": 7577,
      "rent": 7578,
      "checks": 7579,
      "born": 7580,
      "bounces": 7581,
      "teles": 7582,
      "tions": 7583,
      "flashed": 7584,
      "Immediately": 7585,
      "defeated": 7586,
      "ative": 7587,
      "Mila": 7588,
      "hotter": 7589,
      "Mu": 7590,
      "acy": 7591,
      "papa": 7592,
      "weapons": 7593,
      "cidents": 7594,
      "target": 7595,
      "Annabelle": 7596,
      "compan": 7597,
      "Liam": 7598,
      "sprinkle": 7599,
      "faith": 7600,
      "glided": 7601,
      "tests": 7602,
      "burns": 7603,
      "lopes": 7604,
      "confidence": 7605,
      "inches": 7606,
      "Melissa": 7607,
      "grumbled": 7608,
      "Life": 7609,
      "Sal": 7610,
      "thump": 7611,
      "Dino": 7612,
      "farmers": 7613,
      "Accidents": 7614,
      "telescope": 7615,
      "Liza": 7616,
      "dia": 7617,
      "sadder": 7618,
      "stals": 7619,
      "hiss": 7620,
      "grily": 7621,
      "cubs": 7622,
      "concent": 7623,
      "fus": 7624,
      "Sky": 7625,
      "vast": 7626,
      "Whoever": 7627,
      "applauding": 7628,
      "convince": 7629,
      "trusting": 7630,
      "twenty": 7631,
      "gardens": 7632,
      "Sand": 7633,
      "clip": 7634,
      "awhile": 7635,
      "Wooly": 7636,
      "Barry": 7637,
      "necks": 7638,
      "dee": 7639,
      "pos": 7640,
      "bats": 7641,
      "Rufus": 7642,
      "asers": 7643,
      "cheated": 7644,
      "raising": 7645,
      "Boys": 7646,
      "crystals": 7647,
      "blown": 7648,
      "checking": 7649,
      "€¦": 7650,
      "bluebird": 7651,
      "petting": 7652,
      "flip": 7653,
      "Win": 7654,
      "craf": 7655,
      "teams": 7656,
      "Sparkles": 7657,
      "possess": 7658,
      "extraordinary": 7659,
      "sirens": 7660,
      "Shar": 7661,
      "chall": 7662,
      "Lenny": 7663,
      "psed": 7664,
      "collapsed": 7665,
      "insepar": 7666,
      "munching": 7667,
      "inseparable": 7668,
      "types": 7669,
      "forgives": 7670,
      "natur": 7671,
      "œBe": 7672,
      "example": 7673,
      "challeng": 7674,
      "behaviour": 7675,
      "Mona": 7676,
      "soapy": 7677,
      "instrument": 7678,
      "abra": 7679,
      "imaginary": 7680,
      "shat": 7681,
      "toise": 7682,
      "waters": 7683,
      "concer": 7684,
      "scrub": 7685,
      "ramp": 7686,
      "sprang": 7687,
      "bom": 7688,
      "biscu": 7689,
      "rowing": 7690,
      "meows": 7691,
      "grassho": 7692,
      "singers": 7693,
      "tempted": 7694,
      "upside": 7695,
      "storms": 7696,
      "prizes": 7697,
      "waded": 7698,
      "bicycles": 7699,
      "hunting": 7700,
      "momâ": 7701,
      "opportunity": 7702,
      "fet": 7703,
      "cooper": 7704,
      "exploration": 7705,
      "salon": 7706,
      "expression": 7707,
      "distracted": 7708,
      "ern": 7709,
      "conquered": 7710,
      "peeped": 7711,
      "traveling": 7712,
      "adually": 7713,
      "bride": 7714,
      "sandy": 7715,
      "lor": 7716,
      "Jose": 7717,
      "Monkey": 7718,
      "sweaters": 7719,
      "Jody": 7720,
      "adabra": 7721,
      "wriggled": 7722,
      "illie": 7723,
      "Gray": 7724,
      "longest": 7725,
      "acing": 7726,
      "attitude": 7727,
      "Willy": 7728,
      "cheaper": 7729,
      "enem": 7730,
      "enemies": 7731,
      "gul": 7732,
      "mommies": 7733,
      "realizes": 7734,
      "necess": 7735,
      "engines": 7736,
      "Bar": 7737,
      "coolest": 7738,
      "unable": 7739,
      "getic": 7740,
      "Jennie": 7741,
      "flock": 7742,
      "discouraged": 7743,
      "pills": 7744,
      "Tiger": 7745,
      "Elephant": 7746,
      "moat": 7747,
      "trig": 7748,
      "whales": 7749,
      "envelopes": 7750,
      "clearly": 7751,
      "Oliver": 7752,
      "Midnight": 7753,
      "whel": 7754,
      "reappeared": 7755,
      "otters": 7756,
      "Er": 7757,
      "countries": 7758,
      "compete": 7759,
      "Mamma": 7760,
      "tips": 7761,
      "Stri": 7762,
      "cheat": 7763,
      "swimmer": 7764,
      "glittered": 7765,
      "chatting": 7766,
      "robin": 7767,
      "quacking": 7768,
      "chin": 7769,
      "sometime": 7770,
      "overwhel": 7771,
      "Zee": 7772,
      "passes": 7773,
      "strips": 7774,
      "common": 7775,
      "spilling": 7776,
      "grasshopper": 7777,
      "Looking": 7778,
      "Light": 7779,
      "ared": 7780,
      "heels": 7781,
      "trigger": 7782,
      "mattered": 7783,
      "Share": 7784,
      "Janet": 7785,
      "annoying": 7786,
      "patches": 7787,
      "marking": 7788,
      "Te": 7789,
      "gallo": 7790,
      "tortoise": 7791,
      "erg": 7792,
      "details": 7793,
      "soundly": 7794,
      "crowded": 7795,
      "Ed": 7796,
      "cheerfully": 7797,
      "yawning": 7798,
      "enjoyable": 7799,
      "snor": 7800,
      "relaxing": 7801,
      "thicker": 7802,
      "uniforms": 7803,
      "whined": 7804,
      "blank": 7805,
      "Martin": 7806,
      "ingo": 7807,
      "local": 7808,
      "approach": 7809,
      "treas": 7810,
      "surely": 7811,
      "Hmm": 7812,
      "baa": 7813,
      "flick": 7814,
      "Capt": 7815,
      "inger": 7816,
      "companion": 7817,
      "Joanna": 7818,
      "natural": 7819,
      "Captain": 7820,
      "fond": 7821,
      "pip": 7822,
      "skies": 7823,
      "Gra": 7824,
      "prod": 7825,
      "outfits": 7826,
      "Through": 7827,
      "invent": 7828,
      "shallow": 7829,
      "hangers": 7830,
      "beetles": 7831,
      "spapers": 7832,
      "Vel": 7833,
      "orrow": 7834,
      "becomes": 7835,
      "noticing": 7836,
      "stur": 7837,
      "repairman": 7838,
      "vibrant": 7839,
      "washes": 7840,
      "treasured": 7841,
      "Velvet": 7842,
      "Gold": 7843,
      "aboard": 7844,
      "Sa": 7845,
      "Super": 7846,
      "ix": 7847,
      "airplanes": 7848,
      "Leah": 7849,
      "BunBun": 7850,
      "bubbly": 7851,
      "weighing": 7852,
      "necessary": 7853,
      "squeaky": 7854,
      "freezing": 7855,
      "Alf": 7856,
      "backs": 7857,
      "moonlight": 7858,
      "iggie": 7859,
      "timid": 7860,
      "newspapers": 7861,
      "coug": 7862,
      "onde": 7863,
      "lyn": 7864,
      "boards": 7865,
      "scrun": 7866,
      "swirls": 7867,
      "leap": 7868,
      "haircuts": 7869,
      "Fo": 7870,
      "Cathy": 7871,
      "rick": 7872,
      "melody": 7873,
      "blonde": 7874,
      "Rat": 7875,
      "Smo": 7876,
      "sincere": 7877,
      "scattering": 7878,
      "bound": 7879,
      "Use": 7880,
      "faction": 7881,
      "uggy": 7882,
      "messes": 7883,
      "Sunshine": 7884,
      "hummed": 7885,
      "erase": 7886,
      "satisfaction": 7887,
      "HE": 7888,
      "Tomorrow": 7889,
      "clut": 7890,
      "cowboys": 7891,
      "squinted": 7892,
      "Johny": 7893,
      "miracle": 7894,
      "successfully": 7895,
      "sneezes": 7896,
      "mugs": 7897,
      "Danger": 7898,
      "compliment": 7899,
      "Ginger": 7900,
      "lump": 7901,
      "oks": 7902,
      "leaking": 7903,
      "blushed": 7904,
      "œYay": 7905,
      "calmer": 7906,
      "pepperoni": 7907,
      "rink": 7908,
      "neys": 7909,
      "ketch": 7910,
      "occasion": 7911,
      "coughed": 7912,
      "venture": 7913,
      "glittery": 7914,
      "venir": 7915,
      "bulbs": 7916,
      "communic": 7917,
      "sipped": 7918,
      "clue": 7919,
      "weighs": 7920,
      "concentr": 7921,
      "souvenir": 7922,
      "',": 7923,
      "camel": 7924,
      "joyfully": 7925,
      "positive": 7926,
      "ime": 7927,
      "cherish": 7928,
      "scenery": 7929,
      "Avery": 7930,
      "brake": 7931,
      "pressing": 7932,
      "Ken": 7933,
      "explaining": 7934,
      "answering": 7935,
      "situations": 7936,
      "Tree": 7937,
      "alley": 7938,
      "meatballs": 7939,
      "models": 7940,
      "Hootie": 7941,
      "Abra": 7942,
      "Math": 7943,
      "bruises": 7944,
      "scares": 7945,
      "tickling": 7946,
      "More": 7947,
      "smartest": 7948,
      "Pl": 7949,
      "welcoming": 7950,
      "ying": 7951,
      "immered": 7952,
      "Jasmine": 7953,
      "Har": 7954,
      "ering": 7955,
      "chill": 7956,
      "pinching": 7957,
      "Chickie": 7958,
      "uing": 7959,
      "unfair": 7960,
      "storing": 7961,
      "rubbish": 7962,
      "talents": 7963,
      "pantry": 7964,
      "possib": 7965,
      "snowy": 7966,
      "cages": 7967,
      "rewards": 7968,
      "hisses": 7969,
      "cleans": 7970,
      "melons": 7971,
      "amboo": 7972,
      "rewarding": 7973,
      "Isabel": 7974,
      "ans": 7975,
      "roast": 7976,
      "shattered": 7977,
      "compar": 7978,
      "Felix": 7979,
      "''": 7980,
      "Fif": 7981,
      "Tell": 7982,
      "traps": 7983,
      "risk": 7984,
      "crocodiles": 7985,
      "intently": 7986,
      "tale": 7987,
      "teapot": 7988,
      "binoc": 7989,
      "Steven": 7990,
      "Girl": 7991,
      "inj": 7992,
      "practised": 7993,
      "digs": 7994,
      "sturdy": 7995,
      "anny": 7996,
      "acts": 7997,
      "olf": 7998,
      "Should": 7999,
      "endant": 8000,
      "Thankfully": 8001,
      "Blo": 8002,
      "bends": 8003,
      "baller": 8004,
      "groaned": 8005,
      "bomb": 8006,
      "Want": 8007,
      "pilots": 8008,
      "marveled": 8009,
      "tunes": 8010,
      "Chirp": 8011,
      "Nate": 8012,
      "hoy": 8013,
      "horri": 8014,
      "guards": 8015,
      "limb": 8016,
      "Birdie": 8017,
      "ketchup": 8018,
      "Na": 8019,
      "weâ": 8020,
      "Weâ": 8021,
      "sandpit": 8022,
      "stuffing": 8023,
      "cells": 8024,
      "Bruce": 8025,
      "ighty": 8026,
      "apology": 8027,
      "angrily": 8028,
      "umble": 8029,
      "Lots": 8030,
      "croaked": 8031,
      "pipes": 8032,
      "unfamiliar": 8033,
      "fireflies": 8034,
      "facts": 8035,
      "runner": 8036,
      "spoiling": 8037,
      "energetic": 8038,
      "smoking": 8039,
      "lookout": 8040,
      "doorstep": 8041,
      "cris": 8042,
      "bubbling": 8043,
      "invites": 8044,
      "!'.": 8045,
      "hew": 8046,
      "bobb": 8047,
      "Pin": 8048,
      "finishes": 8049,
      "meadows": 8050,
      "ey": 8051,
      "section": 8052,
      "goodness": 8053,
      "tentacles": 8054,
      "Ahoy": 8055,
      "Could": 8056,
      "microwave": 8057,
      "exchange": 8058,
      "slapping": 8059,
      "tugging": 8060,
      "ream": 8061,
      "œWeâ": 8062,
      "consider": 8063,
      "sweeter": 8064,
      "overwhelmed": 8065,
      "Vio": 8066,
      "ats": 8067,
      "napped": 8068,
      "avi": 8069,
      "chews": 8070,
      "styles": 8071,
      "Fifi": 8072,
      "shyly": 8073,
      "scribb": 8074,
      "protection": 8075,
      "shrank": 8076,
      "moons": 8077,
      "stepping": 8078,
      "messages": 8079,
      "hesitation": 8080,
      "Mighty": 8081,
      "strolled": 8082,
      "crou": 8083,
      "dou": 8084,
      "stun": 8085,
      "chopping": 8086,
      "ulars": 8087,
      "gasps": 8088,
      "caterpillars": 8089,
      "popsic": 8090,
      "lers": 8091,
      "aston": 8092,
      "cheating": 8093,
      "certainly": 8094,
      "Randy": 8095,
      "Gemma": 8096,
      "inju": 8097,
      "jets": 8098,
      "Ra": 8099,
      "rips": 8100,
      "playhouse": 8101,
      "bbling": 8102,
      "defeat": 8103,
      "juic": 8104,
      "inspe": 8105,
      "obst": 8106,
      "Play": 8107,
      "cled": 8108,
      "foam": 8109,
      "slithered": 8110,
      "pleasant": 8111,
      "binoculars": 8112,
      "fade": 8113,
      "utter": 8114,
      "underwater": 8115,
      "Climb": 8116,
      "Turn": 8117,
      "Josie": 8118,
      "demanding": 8119,
      "lou": 8120,
      "cotch": 8121,
      "month": 8122,
      "hopscotch": 8123,
      "thie": 8124,
      "ballerina": 8125,
      "pouch": 8126,
      "fishy": 8127,
      "bbit": 8128,
      "Oscar": 8129,
      "loyalty": 8130,
      "transformed": 8131,
      "Close": 8132,
      "Jackâ": 8133,
      "meaning": 8134,
      "cadabra": 8135,
      "differently": 8136,
      "Bea": 8137,
      "Ms": 8138,
      "recess": 8139,
      "shh": 8140,
      "shares": 8141,
      "crouched": 8142,
      "bamboo": 8143,
      "pokes": 8144,
      "pounced": 8145,
      "disappointment": 8146,
      "squeezes": 8147,
      "Sandra": 8148,
      "Was": 8149,
      "ands": 8150,
      "Ribbit": 8151,
      "THE": 8152,
      "caw": 8153,
      "watermelon": 8154,
      "stores": 8155,
      "Minnie": 8156,
      "Peep": 8157,
      "Chuck": 8158,
      "int": 8159,
      "riverbank": 8160,
      "Violet": 8161,
      "unwrapped": 8162,
      "raking": 8163,
      "condition": 8164,
      "electri": 8165,
      "Allie": 8166,
      "Patrick": 8167,
      "amused": 8168,
      "spare": 8169,
      "erup": 8170,
      "sweetly": 8171,
      "ankle": 8172,
      "playdate": 8173,
      "actor": 8174,
      "teamwork": 8175,
      "nightmares": 8176,
      "birdy": 8177,
      "mayor": 8178,
      "Ravi": 8179,
      "fries": 8180,
      "landing": 8181,
      "Pur": 8182,
      "cia": 8183,
      "snar": 8184,
      "snorted": 8185,
      "cherished": 8186,
      "lull": 8187,
      "whimpered": 8188,
      "Boun": 8189,
      "Jere": 8190,
      "judges": 8191
    },
    "merges": [
      [
        "h",
        "e"
      ],
      [
        "a",
        "n"
      ],
      [
        "t",
        "he"
      ],
      [
        "e",
        "d"
      ],
      [
        "an",
        "d"
      ],
      [
        "t",
        "o"
      ],
      [
        "i",
        "n"
      ],
      [
        "r",
        "e"
      ],
      [
        "o",
        "u"
      ],
      [
        "w",
        "a"
      ],
      [
        "i",
        "t"
      ],
      [
        "h",
        "a"
      ],
      [
        "e",
        "r"
      ],
      [
        "wa",
        "s"
      ],
      [
        "o",
        "m"
      ],
      [
        "e",
        "n"
      ],
      [
        "o",
        "n"
      ],
      [
        "a",
        "r"
      ],
      [
        "T",
        "he"
      ],
      [
        "i",
        "s"
      ],
      [
        "in",
        "g"
      ],
      [
        "i",
        "l"
      ],
      [
        "s",
        "a"
      ],
      [
        "i",
        "d"
      ],
      [
        "l",
        "e"
      ],
      [
        "a",
        "y"
      ],
      [
        "i",
        "m"
      ],
      [
        "l",
        "o"
      ],
      [
        "a",
        "l"
      ],
      [
        "s",
        "t"
      ],
      [
        "o",
        "r"
      ],
      [
        "he",
        "r"
      ],
      [
        "H",
        "e"
      ],
      [
        "S",
        "he"
      ],
      [
        "i",
        "r"
      ],
      [
        "t",
        "h"
      ],
      [
        "The",
        "y"
      ],
      [
        "b",
        "e"
      ],
      [
        "n",
        "e"
      ],
      [
        "ha",
        "t"
      ],
      [
        "v",
        "er"
      ],
      [
        "u",
        "t"
      ],
      [
        "s",
        "e"
      ],
      [
        "k",
        "e"
      ],
      [
        "a",
        "t"
      ],
      [
        "n",
        "o"
      ],
      [
        "c",
        "k"
      ],
      [
        "l",
        "d"
      ],
      [
        "c",
        "e"
      ],
      [
        "sa",
        "id"
      ],
      [
        "a",
        "m"
      ],
      [
        "v",
        "e"
      ],
      [
        "r",
        "i"
      ],
      [
        "il",
        "y"
      ],
      [
        "s",
        "he"
      ],
      [
        "p",
        "l"
      ],
      [
        "it",
        "h"
      ],
      [
        "p",
        "p"
      ],
      [
        "o",
        "f"
      ],
      [
        "a",
        "d"
      ],
      [
        "w",
        "ith"
      ],
      [
        "i",
        "g"
      ],
      [
        "h",
        "is"
      ],
      [
        "L",
        "ily"
      ],
      [
        "u",
        "n"
      ],
      [
        "y",
        "ou"
      ],
      [
        "k",
        "ed"
      ],
      [
        "s",
        "o"
      ],
      [
        "l",
        "y"
      ],
      [
        "d",
        "ay"
      ],
      [
        "ver",
        "y"
      ],
      [
        "w",
        "e"
      ],
      [
        "om",
        "e"
      ],
      [
        "l",
        "i"
      ],
      [
        "m",
        "y"
      ],
      [
        "t",
        "hat"
      ],
      [
        "g",
        "o"
      ],
      [
        "u",
        "p"
      ],
      [
        "o",
        "w"
      ],
      [
        "an",
        "t"
      ],
      [
        "c",
        "h"
      ],
      [
        "e",
        "s"
      ],
      [
        "a",
        "s"
      ],
      [
        "ha",
        "d"
      ],
      [
        "pl",
        "ay"
      ],
      [
        "the",
        "y"
      ],
      [
        "f",
        "or"
      ],
      [
        "m",
        "om"
      ],
      [
        "f",
        "e"
      ],
      [
        "n",
        "d"
      ],
      [
        "ou",
        "ld"
      ],
      [
        "al",
        "l"
      ],
      [
        "en",
        "d"
      ],
      [
        "b",
        "o"
      ],
      [
        "ha",
        "pp"
      ],
      [
        "en",
        "t"
      ],
      [
        "w",
        "ant"
      ],
      [
        "it",
        "t"
      ],
      [
        "g",
        "e"
      ],
      [
        "o",
        "k"
      ],
      [
        "a",
        "re"
      ],
      [
        "t",
        "im"
      ],
      [
        "I",
        "t"
      ],
      [
        "ou",
        "t"
      ],
      [
        "d",
        "o"
      ],
      [
        "no",
        "t"
      ],
      [
        "r",
        "o"
      ],
      [
        "ou",
        "nd"
      ],
      [
        "itt",
        "le"
      ],
      [
        "the",
        "r"
      ],
      [
        "tim",
        "e"
      ],
      [
        "l",
        "ittle"
      ],
      [
        "the",
        "re"
      ],
      [
        "r",
        "y"
      ],
      [
        "h",
        "t"
      ],
      [
        "r",
        "a"
      ],
      [
        "s",
        "h"
      ],
      [
        "happ",
        "y"
      ],
      [
        "s",
        "m"
      ],
      [
        "b",
        "ig"
      ],
      [
        "b",
        "ut"
      ],
      [
        "y",
        "s"
      ],
      [
        "f",
        "ri"
      ],
      [
        "a",
        "ke"
      ],
      [
        "sa",
        "w"
      ],
      [
        "fri",
        "end"
      ],
      [
        ".",
        "\""
      ],
      [
        "t",
        "er"
      ],
      [
        "a",
        "ck"
      ],
      [
        "th",
        "ing"
      ],
      [
        "s",
        "ome"
      ],
      [
        "u",
        "l"
      ],
      [
        "O",
        "ne"
      ],
      [
        "id",
        "e"
      ],
      [
        "on",
        "e"
      ],
      [
        "T",
        "im"
      ],
      [
        "!",
        "\""
      ],
      [
        "O",
        "n"
      ],
      [
        "u",
        "g"
      ],
      [
        "v",
        "ed"
      ],
      [
        "we",
        "re"
      ],
      [
        "On",
        "ce"
      ],
      [
        "h",
        "o"
      ],
      [
        "c",
        "ar"
      ],
      [
        "h",
        "im"
      ],
      [
        "ir",
        "l"
      ],
      [
        "e",
        "l"
      ],
      [
        "want",
        "ed"
      ],
      [
        "p",
        "e"
      ],
      [
        "T",
        "om"
      ],
      [
        "g",
        "irl"
      ],
      [
        "up",
        "on"
      ],
      [
        "f",
        "ul"
      ],
      [
        "the",
        "m"
      ],
      [
        "u",
        "r"
      ],
      [
        "B",
        "en"
      ],
      [
        "in",
        "d"
      ],
      [
        "the",
        "ir"
      ],
      [
        "il",
        "l"
      ],
      [
        "a",
        "g"
      ],
      [
        "sm",
        "il"
      ],
      [
        "d",
        "id"
      ],
      [
        "c",
        "ould"
      ],
      [
        "m",
        "e"
      ],
      [
        "c",
        "o"
      ],
      [
        "ha",
        "ve"
      ],
      [
        "e",
        "x"
      ],
      [
        "m",
        "o"
      ],
      [
        "he",
        "n"
      ],
      [
        "B",
        "ut"
      ],
      [
        "he",
        "l"
      ],
      [
        "c",
        "an"
      ],
      [
        "r",
        "om"
      ],
      [
        "w",
        "ent"
      ],
      [
        "t",
        "ed"
      ],
      [
        "ne",
        "w"
      ],
      [
        "o",
        "d"
      ],
      [
        "d",
        "e"
      ],
      [
        "n",
        "am"
      ],
      [
        "?",
        "\""
      ],
      [
        "hel",
        "p"
      ],
      [
        "friend",
        "s"
      ],
      [
        "u",
        "m"
      ],
      [
        "a",
        "b"
      ],
      [
        "he",
        "d"
      ],
      [
        "wa",
        "y"
      ],
      [
        "b",
        "ack"
      ],
      [
        "fe",
        "l"
      ],
      [
        "a",
        "in"
      ],
      [
        "li",
        "ke"
      ],
      [
        "Y",
        "ou"
      ],
      [
        "f",
        "un"
      ],
      [
        "f",
        "o"
      ],
      [
        "s",
        "ide"
      ],
      [
        "m",
        "an"
      ],
      [
        "ar",
        "k"
      ],
      [
        "i",
        "c"
      ],
      [
        "to",
        "o"
      ],
      [
        "r",
        "an"
      ],
      [
        "g",
        "ht"
      ],
      [
        "p",
        "o"
      ],
      [
        "Tim",
        "my"
      ],
      [
        "st",
        "ar"
      ],
      [
        "smil",
        "ed"
      ],
      [
        "nam",
        "ed"
      ],
      [
        "lo",
        "ved"
      ],
      [
        "lo",
        "w"
      ],
      [
        "lo",
        "o"
      ],
      [
        "as",
        "ked"
      ],
      [
        "e",
        "t"
      ],
      [
        "M",
        "om"
      ],
      [
        "ar",
        "d"
      ],
      [
        "l",
        "a"
      ],
      [
        "fel",
        "t"
      ],
      [
        "s",
        "to"
      ],
      [
        "se",
        "e"
      ],
      [
        "loo",
        "ked"
      ],
      [
        "i",
        "ck"
      ],
      [
        "ow",
        "n"
      ],
      [
        "ar",
        "ound"
      ],
      [
        "am",
        "e"
      ],
      [
        "p",
        "r"
      ],
      [
        "m",
        "ake"
      ],
      [
        "u",
        "re"
      ],
      [
        "b",
        "ir"
      ],
      [
        "w",
        "ould"
      ],
      [
        "w",
        "or"
      ],
      [
        "f",
        "a"
      ],
      [
        "bo",
        "y"
      ],
      [
        "no",
        "w"
      ],
      [
        "on",
        "g"
      ],
      [
        "o",
        "ther"
      ],
      [
        "bir",
        "d"
      ],
      [
        "g",
        "r"
      ],
      [
        "p",
        "ark"
      ],
      [
        "l",
        "l"
      ],
      [
        "o",
        "p"
      ],
      [
        "w",
        "hat"
      ],
      [
        "i",
        "ce"
      ],
      [
        "m",
        "ad"
      ],
      [
        "t",
        "re"
      ],
      [
        ",",
        "\""
      ],
      [
        "a",
        "way"
      ],
      [
        "ge",
        "ther"
      ],
      [
        "c",
        "a"
      ],
      [
        "s",
        "s"
      ],
      [
        "d",
        "d"
      ],
      [
        "sa",
        "ys"
      ],
      [
        "star",
        "ted"
      ],
      [
        "ou",
        "d"
      ],
      [
        "c",
        "ame"
      ],
      [
        "mad",
        "e"
      ],
      [
        "ig",
        "ht"
      ],
      [
        "some",
        "thing"
      ],
      [
        "to",
        "gether"
      ],
      [
        "n",
        "a"
      ],
      [
        "ge",
        "t"
      ],
      [
        "it",
        "ed"
      ],
      [
        "lo",
        "ok"
      ],
      [
        "p",
        "ut"
      ],
      [
        "sa",
        "d"
      ],
      [
        "ex",
        "c"
      ],
      [
        "go",
        "t"
      ],
      [
        "f",
        "rom"
      ],
      [
        "t",
        "s"
      ],
      [
        "s",
        "car"
      ],
      [
        "a",
        "ch"
      ],
      [
        "i",
        "f"
      ],
      [
        "h",
        "ome"
      ],
      [
        "m",
        "u"
      ],
      [
        "ag",
        "ain"
      ],
      [
        "u",
        "e"
      ],
      [
        "i",
        "e"
      ],
      [
        "wa",
        "l"
      ],
      [
        "go",
        "od"
      ],
      [
        "w",
        "ho"
      ],
      [
        "f",
        "ound"
      ],
      [
        "ri",
        "ed"
      ],
      [
        "the",
        "n"
      ],
      [
        "de",
        "c"
      ],
      [
        "pp",
        "ed"
      ],
      [
        "c",
        "i"
      ],
      [
        "mo",
        "re"
      ],
      [
        "w",
        "hen"
      ],
      [
        "h",
        "ug"
      ],
      [
        "e",
        "p"
      ],
      [
        "play",
        "ing"
      ],
      [
        "ou",
        "ght"
      ],
      [
        "k",
        "ing"
      ],
      [
        "al",
        "ly"
      ],
      [
        "a",
        "ve"
      ],
      [
        "b",
        "y"
      ],
      [
        "thing",
        "s"
      ],
      [
        "exc",
        "ited"
      ],
      [
        "li",
        "ked"
      ],
      [
        "r",
        "u"
      ],
      [
        "S",
        "am"
      ],
      [
        "d",
        "er"
      ],
      [
        "ou",
        "s"
      ],
      [
        "n",
        "y"
      ],
      [
        "ar",
        "a"
      ],
      [
        "id",
        "ed"
      ],
      [
        "A",
        "n"
      ],
      [
        "u",
        "s"
      ],
      [
        "dec",
        "ided"
      ],
      [
        "ou",
        "se"
      ],
      [
        "e",
        "very"
      ],
      [
        "you",
        "r"
      ],
      [
        "c",
        "are"
      ],
      [
        "scar",
        "ed"
      ],
      [
        "do",
        "g"
      ],
      [
        "d",
        "own"
      ],
      [
        "u",
        "se"
      ],
      [
        "a",
        "x"
      ],
      [
        "f",
        "ind"
      ],
      [
        "s",
        "ha"
      ],
      [
        "p",
        "re"
      ],
      [
        "th",
        "an"
      ],
      [
        "a",
        "c"
      ],
      [
        "t",
        "ake"
      ],
      [
        "s",
        "pe"
      ],
      [
        "W",
        "e"
      ],
      [
        "at",
        "e"
      ],
      [
        "S",
        "ara"
      ],
      [
        "fe",
        "el"
      ],
      [
        "j",
        "o"
      ],
      [
        "u",
        "dd"
      ],
      [
        "An",
        "na"
      ],
      [
        "wa",
        "ys"
      ],
      [
        "d",
        "ad"
      ],
      [
        "ar",
        "n"
      ],
      [
        "w",
        "o"
      ],
      [
        "M",
        "ax"
      ],
      [
        "ou",
        "r"
      ],
      [
        "w",
        "ill"
      ],
      [
        "an",
        "g"
      ],
      [
        "c",
        "lo"
      ],
      [
        "he",
        "re"
      ],
      [
        "did",
        "n"
      ],
      [
        "al",
        "ways"
      ],
      [
        "ab",
        "out"
      ],
      [
        "to",
        "ok"
      ],
      [
        "b",
        "b"
      ],
      [
        "it",
        "e"
      ],
      [
        "mom",
        "my"
      ],
      [
        "q",
        "u"
      ],
      [
        "to",
        "ys"
      ],
      [
        "is",
        "e"
      ],
      [
        "o",
        "ld"
      ],
      [
        "t",
        "e"
      ],
      [
        "m",
        "a"
      ],
      [
        "S",
        "o"
      ],
      [
        "k",
        "now"
      ],
      [
        "out",
        "side"
      ],
      [
        "tre",
        "e"
      ],
      [
        "er",
        "s"
      ],
      [
        "th",
        "ought"
      ],
      [
        "le",
        "arn"
      ],
      [
        "i",
        "ve"
      ],
      [
        "s",
        "or"
      ],
      [
        "u",
        "st"
      ],
      [
        "en",
        "ed"
      ],
      [
        "w",
        "h"
      ],
      [
        "ro",
        "om"
      ],
      [
        "fo",
        "re"
      ],
      [
        "c",
        "at"
      ],
      [
        "t",
        "y"
      ],
      [
        "J",
        "o"
      ],
      [
        "la",
        "ug"
      ],
      [
        "spe",
        "ci"
      ],
      [
        "speci",
        "al"
      ],
      [
        "W",
        "hen"
      ],
      [
        "udd",
        "en"
      ],
      [
        "k",
        "new"
      ],
      [
        "g",
        "ed"
      ],
      [
        "r",
        "ed"
      ],
      [
        "an",
        "y"
      ],
      [
        "r",
        "un"
      ],
      [
        "b",
        "all"
      ],
      [
        "c",
        "ome"
      ],
      [
        "H",
        "er"
      ],
      [
        "p",
        "a"
      ],
      [
        "b",
        "u"
      ],
      [
        "udden",
        "ly"
      ],
      [
        "b",
        "r"
      ],
      [
        "in",
        "k"
      ],
      [
        "to",
        "y"
      ],
      [
        "h",
        "ouse"
      ],
      [
        "is",
        "h"
      ],
      [
        "ne",
        "ver"
      ],
      [
        "f",
        "ter"
      ],
      [
        "h",
        "ow"
      ],
      [
        "o",
        "l"
      ],
      [
        "sh",
        "ow"
      ],
      [
        "l",
        "f"
      ],
      [
        "r",
        "d"
      ],
      [
        "is",
        "t"
      ],
      [
        "J",
        "ack"
      ],
      [
        "sor",
        "ry"
      ],
      [
        "c",
        "re"
      ],
      [
        "b",
        "l"
      ],
      [
        "s",
        "w"
      ],
      [
        "mu",
        "ch"
      ],
      [
        "E",
        "very"
      ],
      [
        "h",
        "and"
      ],
      [
        "i",
        "a"
      ],
      [
        "d",
        "re"
      ],
      [
        "care",
        "ful"
      ],
      [
        "v",
        "en"
      ],
      [
        "ab",
        "le"
      ],
      [
        "c",
        "le"
      ],
      [
        "s",
        "k"
      ],
      [
        "g",
        "ave"
      ],
      [
        "s",
        "un"
      ],
      [
        "l",
        "ong"
      ],
      [
        "in",
        "to"
      ],
      [
        "t",
        "ried"
      ],
      [
        "in",
        "side"
      ],
      [
        "wa",
        "ter"
      ],
      [
        "to",
        "ld"
      ],
      [
        "c",
        "l"
      ],
      [
        "th",
        "is"
      ],
      [
        "o",
        "ver"
      ],
      [
        "bo",
        "x"
      ],
      [
        "t",
        "a"
      ],
      [
        "pr",
        "oud"
      ],
      [
        "could",
        "n"
      ],
      [
        "he",
        "ard"
      ],
      [
        "d",
        "y"
      ],
      [
        "e",
        "ar"
      ],
      [
        "t",
        "ter"
      ],
      [
        "e",
        "ach"
      ],
      [
        "s",
        "p"
      ],
      [
        "L",
        "et"
      ],
      [
        "lo",
        "ve"
      ],
      [
        "e",
        "at"
      ],
      [
        "S",
        "uddenly"
      ],
      [
        "g",
        "re"
      ],
      [
        "um",
        "p"
      ],
      [
        "p",
        "ick"
      ],
      [
        "l",
        "ed"
      ],
      [
        "play",
        "ed"
      ],
      [
        "pre",
        "t"
      ],
      [
        "i",
        "on"
      ],
      [
        "The",
        "n"
      ],
      [
        "ca",
        "use"
      ],
      [
        "M",
        "ia"
      ],
      [
        "j",
        "ust"
      ],
      [
        "u",
        "c"
      ],
      [
        "hug",
        "ged"
      ],
      [
        "of",
        "f"
      ],
      [
        "un",
        "t"
      ],
      [
        "ri",
        "ght"
      ],
      [
        "wa",
        "t"
      ],
      [
        "f",
        "ly"
      ],
      [
        "c",
        "om"
      ],
      [
        "n",
        "ice"
      ],
      [
        "F",
        "rom"
      ],
      [
        "A",
        "nd"
      ],
      [
        "po",
        "t"
      ],
      [
        "c",
        "t"
      ],
      [
        "c",
        "he"
      ],
      [
        "be",
        "cause"
      ],
      [
        "H",
        "is"
      ],
      [
        "ne",
        "ed"
      ],
      [
        "f",
        "low"
      ],
      [
        "il",
        "e"
      ],
      [
        "man",
        "y"
      ],
      [
        "T",
        "hat"
      ],
      [
        "ex",
        "p"
      ],
      [
        "t",
        "ry"
      ],
      [
        "be",
        "ar"
      ],
      [
        "sm",
        "all"
      ],
      [
        "v",
        "ing"
      ],
      [
        "l",
        "ad"
      ],
      [
        "in",
        "e"
      ],
      [
        "i",
        "z"
      ],
      [
        "im",
        "al"
      ],
      [
        "ou",
        "g"
      ],
      [
        "re",
        "ad"
      ],
      [
        "an",
        "imal"
      ],
      [
        "u",
        "ck"
      ],
      [
        "oug",
        "h"
      ],
      [
        "ra",
        "bb"
      ],
      [
        "b",
        "er"
      ],
      [
        "unt",
        "il"
      ],
      [
        "se",
        "lf"
      ],
      [
        "b",
        "ed"
      ],
      [
        "it",
        "s"
      ],
      [
        "k",
        "ind"
      ],
      [
        "p",
        "er"
      ],
      [
        "learn",
        "ed"
      ],
      [
        "fa",
        "st"
      ],
      [
        "be",
        "a"
      ],
      [
        "ke",
        "t"
      ],
      [
        "be",
        "tter"
      ],
      [
        "c",
        "all"
      ],
      [
        "v",
        "ent"
      ],
      [
        "d",
        "on"
      ],
      [
        "W",
        "hat"
      ],
      [
        "be",
        "st"
      ],
      [
        "as",
        "s"
      ],
      [
        "ur",
        "n"
      ],
      [
        "b",
        "ra"
      ],
      [
        "Y",
        "es"
      ],
      [
        "sa",
        "y"
      ],
      [
        "f",
        "i"
      ],
      [
        "ur",
        "t"
      ],
      [
        "exp",
        "lo"
      ],
      [
        "w",
        "here"
      ],
      [
        "Mom",
        "my"
      ],
      [
        "g",
        "ard"
      ],
      [
        "gard",
        "en"
      ],
      [
        "bea",
        "ut"
      ],
      [
        "le",
        "t"
      ],
      [
        "e",
        "ven"
      ],
      [
        "f",
        "le"
      ],
      [
        "p",
        "t"
      ],
      [
        "than",
        "ked"
      ],
      [
        "laug",
        "hed"
      ],
      [
        "n",
        "t"
      ],
      [
        "sk",
        "y"
      ],
      [
        "y",
        "es"
      ],
      [
        "sa",
        "fe"
      ],
      [
        "j",
        "ump"
      ],
      [
        "un",
        "der"
      ],
      [
        "el",
        "l"
      ],
      [
        "a",
        "ce"
      ],
      [
        "s",
        "ur"
      ],
      [
        "l",
        "oud"
      ],
      [
        "in",
        "y"
      ],
      [
        "an",
        "k"
      ],
      [
        "C",
        "an"
      ],
      [
        "l",
        "ist"
      ],
      [
        "c",
        "hed"
      ],
      [
        "i",
        "ful"
      ],
      [
        "beaut",
        "iful"
      ],
      [
        "g",
        "ive"
      ],
      [
        "jo",
        "y"
      ],
      [
        "lo",
        "ts"
      ],
      [
        "r",
        "ong"
      ],
      [
        "f",
        "am"
      ],
      [
        "st",
        "ill"
      ],
      [
        "am",
        "a"
      ],
      [
        "animal",
        "s"
      ],
      [
        "Jo",
        "h"
      ],
      [
        "Joh",
        "n"
      ],
      [
        "n",
        "ing"
      ],
      [
        "ra",
        "in"
      ],
      [
        "w",
        "on"
      ],
      [
        "bo",
        "ok"
      ],
      [
        "st",
        "ay"
      ],
      [
        "T",
        "h"
      ],
      [
        "re",
        "e"
      ],
      [
        "bo",
        "th"
      ],
      [
        "t",
        "urn"
      ],
      [
        "N",
        "o"
      ],
      [
        "f",
        "in"
      ],
      [
        "t",
        "wo"
      ],
      [
        "b",
        "le"
      ],
      [
        "ha",
        "rd"
      ],
      [
        "b",
        "ad"
      ],
      [
        "ha",
        "s"
      ],
      [
        "p",
        "u"
      ],
      [
        "op",
        "le"
      ],
      [
        "A",
        "s"
      ],
      [
        "li",
        "ved"
      ],
      [
        "B",
        "o"
      ],
      [
        "ck",
        "s"
      ],
      [
        "L",
        "uc"
      ],
      [
        "Th",
        "ank"
      ],
      [
        "le",
        "a"
      ],
      [
        "bra",
        "ve"
      ],
      [
        "a",
        "pp"
      ],
      [
        "Luc",
        "y"
      ],
      [
        "ke",
        "ep"
      ],
      [
        "wal",
        "ked"
      ],
      [
        "h",
        "urt"
      ],
      [
        "gr",
        "ound"
      ],
      [
        "sh",
        "ould"
      ],
      [
        "t",
        "ru"
      ],
      [
        "or",
        "t"
      ],
      [
        "ig",
        "h"
      ],
      [
        "is",
        "hed"
      ],
      [
        "sur",
        "pr"
      ],
      [
        "ang",
        "ry"
      ],
      [
        "fam",
        "ily"
      ],
      [
        "pe",
        "ople"
      ],
      [
        "fle",
        "w"
      ],
      [
        "call",
        "ed"
      ],
      [
        "A",
        "fter"
      ],
      [
        "r",
        "m"
      ],
      [
        "c",
        "on"
      ],
      [
        "so",
        "on"
      ],
      [
        "do",
        "or"
      ],
      [
        "D",
        "ad"
      ],
      [
        "ke",
        "pt"
      ],
      [
        "re",
[...]
